module @empi {
  ml_program.global private mutable @_params$0(dense<0.000000e+00> : tensor<10xf32>) : tensor<10xf32>
  ml_program.global private mutable @_params$1(dense<"0x1F945CBC8786903B3E95AA3D89FEDDBC1F4244BC3B00303E974DFFBD270E23BE0B4E5ABE8CA2343E776CA23BF7BEC7BD1FB02B3E61C6933C3B703A3EFD8FBCBB096CC03D97D2B5BCE9CCB83DFD2E913E8F05A93CA1F6E33C9E72AEBCA35E00BB3EC65BBE058F883D23E416BE5A801A3EFF6EAD3DAADC733D4584993AF8FF083E507A89BD7F286ABC92E532BEF659903C54976F3DF555253A76088ABC720D873D2FC1963DE6CEA53D4325EFBD4173193D6676ECBC5FEF543DB9D0873E49FB1C3ECC20E6BD0A1466BD1355B5BDCB0322BDEE2C57BE7CD8CF3DA94E16BDA8AFCF3CEFAE903C06701A3D01D8433E849C40BEECE9FB3D7A434ABEBF1D79BEC1156F3C444EC4BD7DDB31BE420EA5BDA3861BBE00E4443EDA7D28BDCFD04C3E59E7DC3AF0AC873D063C693D78E9E13D9F8AA9BCB182B6BD728E88BE3937383ED7C3593E9D93F73DCDC2ABBDABCA0CBE0C1D1F3DBF14093E1CD18A3E5F0FB9BD41BE83BEFD09D03CCA41833DDCA1553D486847BE14DC5A3C4964323E4A03283EB355B9BC01775B3ED7BCECBDBB6638BEDA0F1BBE9A99453D407D4B3ED4FCA03C3B117BBD951600BC3C9865BED0B1173E96B6013D89050F3DE59589BB579124BE227A343C5A0C5EBEF8000D3EFDB7863EC250BFBD85FE413D808CEFBCAA4B3EBE8400DABC9A45763E6E5E1BBE00174D3EB882473CB575EBBD25C8443EDD1F8D3CE8B9C4BDBC15A9BD218B0D3EAD2B7F3C6E2A813C6A60103DEF91A23D112B03BD4B14B6BD6F59833D2AB65EBE4CB2AD3D98ADD53BD422933D567F44BEDAF9C8BDB8F66A3D9A1ED6BD73E4F4BCE76987BE3671563D3657383EC6B750BED3F73E3C50BC8A3E3CD7E43CFD558A3D284B99BDE93EE93D0BD4783DB840573D0FE49C3D6883C33CD77F14BEDD8527BE8441F43C880339BE9A1D0C3E5168193E69A738BE058D58BDD7A7A13DC5CE003E49A3B73B91E711BE67E8993DFEF724BE862B1FBE02CDA73D28D02D3D7A45663CBE2E133D7CB8173EFE6265BEAA0CC4BDACEB393CD87F8A3D8249C9BDB089063CD450293E04B55DBD0F17DDBDED9483BE54814D3D495C0DBECE2C5A3E35D1DCBDF6F50ABE3A078DBEEA268F3E493F013EECAC05BE9C8C713D295F18BD0E8289BDD617BBBD5B86BBBC99CB05BE7A0B733E578AA03D4AF3243E5A6ACEBDCA06DE3B7F9CA9BD917E963D9C6F84BE1AD279BD6CC1F7BD7170DABB4275AEBD7D6602BDC26802BD42ACC63B26535B3D52C9BC3D2DDE303EEC910C3E8BFB613DEB8D803C98217EBD83BB7F3CBF22513E9CF69F3DF77355BE83F1923DD455533DE1352F3DAE759ABC187620BE5070CDBC7C83103EEE6309BD6BD952BE97ED07BEB942AABB1B6EB6BD9981F0BD00082F3EB164DFBD6415713EEF8305BE641164BE4410F73D2A334DBC0B5C303DA652B53CEB0A67BE7AD443BDDD6609BD2562D6BD98AAD93D1C7D36BE515070BD0CC8B13DA90AA73DE7722ABE07808D3D2AF450BD5CDB383DC4F1CABD6E51663D4C7B6ABEFD6A8A3C20131EBE61E6193DEE53DE3D690A1A3EC7F07ABE29BAB73D8F3132BEF8E3033DCD77653C9FBB6BBE8574073DB87537BCFDDA7A3D9C5FB43CF6EF1CBED7B5653EA99A76BE3161503E04402EBCBD27033E325DFE3C16CC273E8372B83BFDFB563E935806BEE83C9FBDE78B86BD6BBB1C3D41674FBB65DE84BDFC51C13D3BD9433E9898203DF91A61BE197CA63D455C6FBDFF102B3BB2CAA7BD4343C2BC1EC78F3DC5EE34BE25AA643D442CAC3D93F4523EAF7D9FBD5BB1163EA028593D48BCC23CB004873DDBF08D3E64D0313DE518563E0D47193E57E7013EE284BE3B11DC7F3E2AD24DBD1BF9B0BD7A764DBD6B0895BCE1FAB93D1D661ABE849880BEA70EC53D19BEA23D262D943D3382563EE6CB723DB6FB84BEE4CF51BD63576D3C187509BC9BFC93BDD483B33C6E43983D7ED412BEA88F22BEDD0C89BE7D67643DC45C893EF0D43A3D49760B3D21CA0CBEED1A123DF14E023EE9C818BE9DBEE83D03C5E7BCF254063EA68F1F3E484798BD788AAC3D43B6FC3CFF4C76BD32A9C6BC976D96BD35FB323E132EEFBDD9E9DBBD33A80FBE660647BEC529B63DA9182ABCD46F133DA353A2BBC90D9BBD41902F3EC814293D3DB75EBD9C6143BCD4E5A9BD77CE8DBEFDC258BDE625763EE5F1F63D38EBF1BCEEE0BCBDBA139EBCF41B6ABD100D2D3E7411CF3DE49E4F3D59FCD7BCA21A88BD72A7BB3DF0ABCFBCE25CD4BD7F11563E032F973C86BACA3D6E53F13D3C956A3E4DFD0CBE0E2093BDA7364DBD44CD843C44365DBD934380BEC788BABD5C8107BDFE29A03C1A5D08BE6B3CA13C16C0693D692310BDB0967A3EFCE9A83CA0586E3DE968183E8C701EB91158ACBCCED5C3BDD7A3EE3C158E2B3ED382413E9E7B103ED38DB9BCEEEFC83D077D71BEDD62123D75E2253E480C80BE0507923DF83ABEBDEFC324BEF40809BD33BD6FBED072303E66AC67BEDBD8023DF007F13CD5A9013BF1B811BE34F4913C5FA2C83DF9BBF4BDD03C9C3D15DCFC3D6A682E3E82B66EBA5629DCBDCCD8A9BD1BCD23BD562E75BBF58712BED8C31A3D315D82BD8E2F8E3DD6450EBD36D045BE2132E03D90F9EABD5A46F7BDBD4EE23C63FAACBD47D6D7BDAF3086BCBE0F20BEABFD243E1842D73CFD2578BE0A7A52BE55053B3E3C8F1F3D0A8424BC38364C3DC8246A3E4DB4963D3C14293EB62E99BD80A17ABB3165903BF3D7B9BCB599263E249D10BCFA440A3EF2A5803DF9CD1CBEB4A9343C76490C3E750B13BE092E4CBECECAEE3A77F2BCBCA01B2BBDE4CF1EBDF02385BC9971113E1F7493BC04E1D03DF171A83D79B5E3BDC4CAAE3DB844963D1E8BA6BD662608BD0F6C913D681D163E06054DBE0D6910BE535AD7BD26DD783B251C223C84BE51BDDB01133D939F8DBDE186A23DF107273E5B75C7BC206111BD162F2BBED8FD0FBE92EAF5BCE2F08BBD938DA33D9D93BD3C8D43673ED12001BEA39502BEB6BCDB3D620ED33CD4D6D7BD85D61C3E1620083EB234023EF06B333D4F4C92BB222EB03C675257BE2340BD3D35F8CD3DCC658F3D2A8234BDABC178BE8ECE1DBD40E325BE1EDB42BE7905C33DB6A71CBD769A70BE468DFCBC4A06EA3B2C93AABD53FE14BE92A7E33DEBA38E3E03B86E3ECDB206BE4D7CB03D78D48A3D570CE2BD26B31ABE6DF30D3E37238D3D79A8E7BDCD84B43D112259BD75F9BC3DABE2D2BC15CC0E3EAE8D313E792A3E3DC7BE99BC1FE6913D0BDF7CBC1866BFBC9D106FBD6DAB343EA6657B3C4A78133DF14C503D275242BE840860BEAB9C433DDCB7113D8BA3893C09A2B9BDBC12903DC0D69A3C13C3843ED71365BE660351BD07522FBDE293E8BD505B15BCE2EB423B74BA32BBDF358D3CE09518BDEE951CBECD76C4BDCBFA00BE8B1585BD40C7133D6F6AF6BC12E858BD969E893EFD61D23DCC08313EDF9CD1BD303CAC3D043B583E63D0A2BD32CFAFBB7D25033D23946ABC297BFA3D308506BDCBA55EBE999E9B3DCA8D05BE055C8EBC0AF7CD3DCEBC3CBD767785BE7D2B253EFF52A13D502DDB3A5F5BA93B073B913D3D05183EA2E61D3DC6EC74BE803A42BEF54AE5BDBE42A13D76BCED3DEC50D8BCC089003E993561BE"> : tensor<64x10xf32>) : tensor<64x10xf32>
  ml_program.global private mutable @_params$2(dense<0.000000e+00> : tensor<10xf32>) : tensor<10xf32>
  ml_program.global private mutable @_params$3(dense<"0xDB67A03C0870DDBDA956043DB7ED5CBE86227EBD8FA9603E3AD5603E6CA4233E828A3D3E2DA13DBDD851B9BD51B227BE58ABD9BD8C9A61BDB81A7D3D0659DEBD4CC80B3EB861FA3D012E753DDFC78DBC0D9337BCC6794D3DC17E15BE4911AD3BE158A6BCA8F9F03D512D153E624395BDDBBCF2BDC5EC103DE7FE4BBECE2827BD552C6FBBB87807BEC63A1CBE7D44683D4C0F5BBCF0421C3EC44843BEF6328DBC8536403EC49A36BC2BC830BEFEDD83BEA9CC003DE7D9BDBC64FC12BEAE10773D0A8988BD53EF04BD66E15B3D8E3C8BBC89C9113E4A18B03C1E81F53DA2B48CBE149733BD1923153C53078D3D6BD082BDBBDD4ABD0AC8B9BD4FC80ABE525F803EB8FC21BED721A1BDFB5E3FBED6FB113EFC4B53BD687E263DCD52EA3DA722AE3DEDB7173D582A053E5D0C953CD0307D3D7E0B42BEAEA414BE8CCDC2BDA990B83DEA4F84BDCF64523D225B1D3E34004A3EE043763B3C0E6C3D4EA89CBD0C8326BE2F038CBEF62EB23D96E5E53D4C84693CAB09343E62ECE8BDE7EC8B3B1705733EAC5723BEB689363C14DDDABD8091363D10EEDCBD78F484BD30A4EE3C430424BE2E36953C9657F7BBF8A2743E0783723D33F0CBBD23B77A3E346A51BE677F24BECBCFDC3DA63E8C3DC3C03BBEFD9CFDBD468F87BCF411A43D265FABBB4259D4BD8C7D663EFA26A73C85AC9EBC481307BC95F28EBE8482A53D543F373ED3CD3C3CE791D6BD5D0340BEE539E93D4FB3343D416C29BE575F20BD813B8BBECADC3C3D358851BC0566453D80AC543E1127CB3C8C7C8DBE01F086BE8A4818BCACE2253DC35D46BC7F084B3D98DCE5BD472E0EBE0EDCFA3C5F990EBE7F907EBD09728B3D512376BE9F6E803EED2CAB3D590E06BE49DF0A3E2EF39E3BA1F12DBE05FACABCED39C7BC0BA3763EBFE333BCCABD33BE4DC342BC6FC1AABDE260333EECA3413EF683D53D71DE95BD79C9E7BD0C5C4FBDC5580ABE5123CF3C3D8A80BB1B38333D11D6023D6CA1FBBD7298813DD94C8C3DBC58C3BCA5B52C3A075B11BDFF568C3EE4B425BE1A49DABD5266ADBD1F982B3DE9672A3E5BDA81BC394D2ABEF51E963CA0D784BD8A2B763E626650BCFCF493BDE64C9DBDEAC1623EF165583DF28604BE5F9D513DA3A62B3E5C3CBDBC3851EEBBC196453E72E50A3DA27F843D240696BD2981E8BDD1EB86BD39974B3B96B9263EC616653CEDF0D8BC2F813A3E42B2463EC53E5CBEF808D1BCAF0A0BBE0AF844BE955EDFBB74C3223EC360B33BD9EA793E9498173DF0904F3D70E53D3E9E747DBD9D7525BEF4E8123E754198BDEDC3153E193CE13D45A083BDB3E003BDF033653D985A36BD72C8E13D488B2C3E25E0DA3C75368C3CC8C5F93CB9939C3D536E143D51C40F3C2D2913BC2ED911BE2CD9F6BC1A921ABC54D6513D7274763E9D3A55BEBE34493E0482163E2DB9DFBD6097A0BDD9433D3C68658ABE8D1D22BEC92342BC14286BBEC2E53BBDDB2EC63D650BC83DA0F485BBAB804B3C1BE3053E8B49CE3CB0ED84BE43DD2F3E874914BE32374A3E2CC427BE55E0953DFA2259BD75E09EBDD6CBC43DE2E35F3D3FED01BEA42F03BD860C85BEE5F80C3E67FF70BC312DE23D2958BC3D386B49BE247CF13D9CBD693EDBE7FB3DC0FB0F3D8697D53C6BA83ABE338A9CBDB02833BD9C2AACBB399A3FBD0D219EBDFD01FDBDF0354E3D52C417BDFE5EF93DBC33163EA3EE1EBD7C5B79BD89092A3E240B2EBE5C35263D356B993DEA002EBE723124BD4B1627BD28335FBED0EF4B3ADC840FBEDC0627BE078E3BBEB24817BD223E92BC060D14BE188D913DE6B3DF3C8B4C77BD872333BECB30DABCC499783E7E530EBE4BABF3BC875084BC3F5DF53CCA4C403EA9A708BE3BD130BC3C31D0BDF8CE023E08362D3E50E274BEBA80E0BD7AFE073EDB822EBE41605CBDD1148A3DFE8498BD48C7033E10AA26BDC691A53DCC2E53BE875440BE2B2F503D767644BD8D78143DA66C493D815AFD3D7B74DE3DC4F83FBDCB656C3E9F01493CE57C053E6F7D8CBC7A6B0EBED83C9CBB8346FA3C48B14DBD1DD86C3DBDF2E8BD1978323E883FBFBD10034B3E7620663E389EC3BC9BF0FF3D589C08BE3C4883BE8C8A0ABD3805B33CB2BB7FBDB63EB33D6B7838BC6C4564BBF1C417BD3DE464BE56002FBDE64B1B3B01B9B23DDB708FBD01B6513E48BEB63D5C198ABDA205A13D5ECAE73BCDB7423E5E8812BE3870993DF44D38BCAFC31CBE6D9E2BBD58BE81BDEBCA26BDB793533E3171E03D0EA5C63DB3B9893E411F1C3E34661E3E92A88EBE5E0153BECCBC223E58CC8B3D10BD26BD6AC73FBE195EDFBD188CD6BC179DDBBD528569BC8D2797BD094C623BF6907DBEAACF81BDA3355FBEEE94FE3D79260ABD1556D1BD0C19633E17DDB53C2BAC7BBD4615413E81715B3EBCF1723D7CA3F13CD8A0A43D4EAD163E723537BE60D02EBE8A6E22BEEE36A23D4971813DD76EF6BD745E8FBDC7E7303DA15C7B3EC17F7CBD91A384BEA79060BE42A2513E0C11BFBD772949BD3D16B3BDE06495BA14530B3D6CEE42BE4B4DD2BD8DE1D63D705AE0BD55A9B43D7586FC3DDE5174BE0272DEBD6473AFBC874875BD9AA763BEE391D83DC813023DAFC9F93D91C060BD4021DA3D3C10D23D1BBBEFBBA6824D3EC1EF823DBFA886BEA3DA343EBE96613EA5BCA4BD4E5D6ABD4C437EBD74A3243E31C4D4BC592F4C3DE300D5BD229E883D2695863EB716293E47C115BDB04F3E3E98DA7D3C1737C03DFE5CC03D23C1B4BD4DE6953CA31237BE044E133E23DB4E3B3973D73D9AD18B3C346C5B3D65E6DF3D26B3DD3C0A20433DC82E89BE89BC6ABEB1AAD73D3DC402BDC4515B3E9831213DF875883D6525C93DA7F280BD09A14CBD8C375A3DF5DD4BBB8622EF3D4B193CBDCC4D3ABEE5E8433C716A563EE07B363E2054B7BDCEDD79BDCFF61BBDEE9CADBCC18816BD149694BBDD8110BEC73A853C036A393D7A4EC0BD3983613D592C9DBD8FAAE53DE13608BBB5B5263DFB82623E23196FBE5B480DBDF9A45B3ED38E133E134041BEC08F0D3EEB5B433D277867BE5F2D6C3C88C3C1BC548BAA3D840F1A3EE643B0BD08D61ABD21967E3E2887113EF51722BE16B5CE3DC5351D3EC948E9BDCF9E8A3EA5074FBDA010B6BDAE7D563DDDBFDC3C4962E1BC65D8AE3C632EAA3D708D6F3D430E803EECFA73BD1EDC31BEF5E14C3DE19A16BE5110BCBDBF40DFBD3D0150BED3B8F03CA290C5BD11A7823DCEA554BDF0498DBD1688FFBD44FB00BED022F73CF204153EE213C53C933C9DBD12F186BEB119C53D0D6B73BDBA855ABEC55060BE18BD913D5AFC1E3E62261A3E2D51EFBD50C4C13C71A81BBE537713BEA24A11BD797D313E01DEF2BA9CC516BE7C554B3E4CEA273D731B91BD10DD723E7087153C95BBCCBDF3EDE2BD53BE193CA90226BEDA0F11BEA0F97FBD74758EBCEB002BBE8592103EEA455A3DCF1072BEE0D0863E3CFCFEBD52F28FBCB6BC123E3CD52F3D5CD9673D90219F3DDB921FBBBF7BE4BDE312693E70E5513D0152B83D9768973DBBFC9A3B2FE8C2BB12CAF23DDBF03ABE650B5E3D5D21673D8B80F73D24D3133D95D6643D82DF513E57009FBC125717BDCD70E6BD55190C3EFADA113EA6964A3D"> : tensor<64x10xf32>) : tensor<64x10xf32>
  ml_program.global private mutable @_params$4(dense<0.000000e+00> : tensor<5xf32>) : tensor<5xf32>
  ml_program.global private mutable @_params$5(dense<"0x3BBA1DBE7A1AE03BDDA085BE64FA2A3DA891C43DE2820D3E8921E6BD27A7C43C9C4060BE4DC27CBD728DF2BDD1CFF23DA88DC9BD051F293EE511003E0DCED9BD947859BC84F7573E1C8DA23D60DD2ABD9B418DBC1489C33D2D195CBC813D083D592FDEBDCE0334BD23F533BD4996DCBD87426B3DC8AA88BD44F365BE4045A9BBD21E77BE6AA5C03CBC7E673D44F67A3D002816BD149D653DE07649BE253A6ABD3D7C5CBE381537BDDBA6F03C8F0F3A3D397570BE8E7EA93DD099C53D09E9923D04E3963D575D14BE7EABA8BD647F143C148CD43D0348063E565EF4BDD4E313BE03B9E5BD41DB943C32A414BDFB498C3C64780A3EDF73DFBDE206AABD3D84F5BDBA940BBDE38C423E7D3EBB3D5D1AC9BDF027593EAF39123C4BB5A8BD5534D73D072F6E3DE7FA3DBE9D2842BE943A2BBE3320663E09475D3DE2FEC43D646A9D3D328E13BEACE6E53D42B081397946F03C6642553D108791BC6BB826BE31C18ABCEA5AABBC1530D1BD35A143BD7DD7C0BD58D53D3D44C5BEBD316F643CD506243EA36227BE4B76E93DEFEA6FBD81B62ABD573BB8BDA6A6BBBCCE5F25BD9E1895BCF2D7D2BD9D8733BD15F0BEBD38EA19BEE0940E3E4E7ABF3DC625333E43561A3EFBE38B3D9B67313CA10A8D3B795CEA3ADC2C273E92E7B9BD7CF9BA3D55D3CFBD9E5F3C3E4F5CFB3D59A9E73DA3C003BEBD2350BEEF9EE2BD8CB25B3E557683BD7FF7623E0423DBBDC63A3ABD06FB99BD0438AC3C010D60BE9AB9393D20378DBDE17F973D9660ECBDDBF5D83D82FC14BE2858B53C659DA53DFC7DF63DC7D1A8BD8FB131BEF0FF9CBCA244A83CAC8C8E3D6E5BC9BDC583BEBDD0DB8CBDD099733D845374BE738902BE8095FFBD7905B5BD43AC03BEBC2EE7BD04C221BD4E79F23D719EBF3C2AA1803C8D5D743C5593063D0B5699BD48F2B13D6F064BBE7F2A613DE708EB3DF3BFB4BD3DD98E3DCB2D243EDC0A9FBDB42941BDA9EE11BE696F8C3DC032BA3D542985BC1603FC3DD421F93C916E553B59DE38BD423B7C3EBD7F47BD74147F3D09712BBEB9A5AB3D5AFE1C3EE537A93CCC35ABBCAA6F773E713E46BE7B704CBEAFD73CBDC245FBBC86FD50BEE07FC3B7E15E5FBE2D1F273E18AC193EF2F4AEBD533D1CBE6DCB30BD8631A13D4318153E22ED43BE103FF7BCBA97BFBD5A6F853ECE842CBD2BC185BDB3281ABEDE4C45BE461EE6BDB8BA83BEF8F2A5BD9CDE6C3EE6230B3E00AB383E27D3C0BD0A2EFBBD8F5A06BE6CCE11BE98AA063D8FC89EBD91B38A3DA4EB433E3D2E943C58EED0BDE25A10BE94FDFE3D148DAFBD5E75D4BCA1679EBC3C69DCBC34AC523E2A311F3D0B7403BE363C5E3DBE0010BE3F21EB3CA549223CDD93353DAFC2603D1733073B34B7A63D41D106BE0C8992BD634557BE1F4D61BD2AEB93BD9DAE113E2276883BEAE31CBDD36BC43DE6C7EB3DD5E0E6BC7803DCBCE2E7FA3CCE1FDCBD5807FFBD876E06BE27275E3E72D7203EBCFDB53DAB2B96BD063C923DB2A2963CF4DA653E280E9EBDA3B74C3D0A794CBE0909153C6C35983D751AC6BD12DA6BBEE8988E3C6F86513E193054BC073250BD33491CBDAA91F73D782F89BD1D5024BEE514253EB3C951BE0B5474BE13BBBEBDE4BB04BD2593EA3DF2220ABE2845963DD95FFDBD3D4A17BDF58F50BD4776633E62CFCEBC145369BE72BBF7BD4039B6BB3AF59F3D805A54BEF6CA863D4E05E33D3EE803BD5F1DF43C6AD7C2BDA994A2BD094028BDB6982B3E051D353DE31C19BDB87D06BD153E80BD478EB53C1004BD3D5510CD3DAF2F9C3DAA6C7B3C2083E4BD"> : tensor<64x5xf32>) : tensor<64x5xf32>
  ml_program.global private mutable @_params$6(dense<0.000000e+00> : tensor<64xf32>) : tensor<64xf32>
  ml_program.global private mutable @_params$7(dense<"0x40D1963C528F883D696A553D7253943EDDE6883C0352503C1931173E01F9473EF9217CBC09DFF6BD8258463E6AB8C1BD836DA03DEFF6593DD53993BDA08717BE8718EBBDA093F83DBF6B153EE8FBC4BD850428BDC8FCC3BC05E32B3EA721EBBD1450233E28D3A13EF76203BED8D543BD26A6313E57716FBEC15D37BED48B803D240BC63DC53EAA3D6EA83C3D3518993D6706BF3CBD551ABAD72DB4BD0F8D453D8935F0BD6D18FF3D0040A7BD960B29BE77464C3CAEB4813C4985623E8297703D7617DABD5B4E5C3CFB5E27BEB86FC43D9A369C3D8A39843DA0F72CBEC5BA76BD7471A1BDB036A4BD5420FBBDF581CEBDFA756EBD1C7F8EBEE6FCACBD947D093EC480213ED05A63BDAE0A98BDAA47873D1421A2BDC8C5C9BCE33F293EF39AA8BCB63A073E3D6B9FBDF20EBABD644FAA3D5BE557BEE74E5BBE5EDAD33DAAE39A3DEEF2813C84D224BED48A343EE91209BEF4059E3CC4CAE13D2246053D68FF93BD345265BCC0D6D0BDCA92EF3D231F29BE6D0C5E3E83C9FE3D28F49FBD8D7B0CBECA6F68BD6775ED3C7071A1BD4EDC02BE917E173D8A5D3E3D38A31FBE1281E13D326B773DE5936DBEBAFC7A3B23609B3EE0DB5FBDAA70E9BDFB674B3ECB4FBD3D71409BBE8006323D1170913D4210073E18AC9E3D179C32BD9C67803EE4C7603DE5ACA4BD7D452F3BBA8417BE84A896BDDD76013E1F1C25BE9D7BFE3B0B55663D53B5D5BD080A0C3E9AB4833E674EE53DE45845BD26EC3F3B143F7BBCA4A6053E471FE5BDCED1E8BC18C56DBE642B21BD0380733C09AA9CBEF5FBC43C10F715BB01C8933C7652373E8F7492BD2471C6BDDFB70A3E7898DD3D8B928ABE35AF6F3E794E123E21C4153ECEF2943D7CB7DCBCD5EA06BDDF898F3DEFDBE0BD9F167E3CF4EFE63C2E545CBDA5070F3EED4469BEC828CB3ADE4BB43D5CD7BABCF7959F3C65FA513D2EED9DBDE636D63D47955E3DE1899FBD515CCF3D946B83BD4F40223EFFF3813E8CE21B3E7E6E043D1682B8BC9DD005BE8321833E8BF4DDBCFA03863D4760CBBD8122EA3CD053B1BD886DDB3D0863BCBCE82575BE932BE33CFA2914BEFDE3C33D0AFD91BDCE14B13CD0737BBEEAD5A5BDB1FFB2BD6400593E6EEE143D02299A3D49DA2D3D8770E1BD730144BE0E9ADBBD5A0017BDF387B63D397B6EBE3C7200BD537BF53D1D02033D84E387BD3B6B263EC2D6CE3CEE8FE2BDCCA0493E0009903DA9C727BE6FB023BE37809F3D000398BAF67BD33BB1598B3D36E572BC88B455BEFF0C5D3EE6FDC6BC547BFC3C62A5093DE2AB183D654D4EBDCE132E3EED325DBE975107BE4311B0BD9F5129BE53BD493EBF8C603E1EBE543D5B4692BEBB0D14BE3ACEE13D85BA8C3DA89F45BE35E75FBEE5B78CBD0284BBBDDA4B95BD48F1033DD7F53ABD24F6E63C392499BD3B3AFF3C0118C0BD9DF997BD1C0E883D0234493E25E47FBCC7EE1E3D83FE1BBE5E07CD3D89F533BE823D86BD9CA3983C4642FBBD067FF7BB727E383EBD862BBE3A06893D0BEAA4BD03C9573D0552AA3CDB73363E76F1093E520897BEE5F0FFBCF5DB30BD51CBE03D3994103E283C5E3ECF7A51BE9819C63D7AC4CCBB9E5238BE3914663D9AAF4A3ED347C3BD2D63B5BDF93E913D674A4EBDFE7CD83DDC4B103DEA0AEFBDB2611FBE19875EBB92AE27BD89FDFEBCBF1A50BE5BDB6FBE2033B73C4D12BDBC4EC3013EBB468D3DCF096B3CC0491CBE8AA982BD8DF773BE03EF2A3E9777C43DA1CCD6BC85F42EBE0527FD3C280A0FBC27978A3E5B82F63DC89ED23D8ADEA43D1D4603BC7601BF3CF92064BD23C03E3D5D09C4BBD3D3873C29C9C33D4916893D0F5ED03A83961EBE103FD4BD76B89FBDACF8473D6B5556BE90D91ABE72AECBBDA85796BDE3BD04BE2930A8BEE2C8B0BE4AA505BE8014F63CB4B46B3DB658363DF4FDAE3DAE2F8B3D869E053E23B9F3BD2886DB3D61E4163EB0308CBDB7DCBFBD26D728BE72035EBCD2A4D13DA7DB233ADCDE183E435FB53CD7956C3DBD902A3DD5ED22BE2306ECBD38DC97BDAE536D3E7B27073D07DA33BE4761A63D900915BD4FB2DF3C520AB4BD98DBDC3DD9524BBD7E557F3D2CFFAE3D863F7F3D9280B2BCB4779CBE275ABEBCE1555BBD7185A53E57E536BDB6B4CBBD2D93473E85D7633D707070BD7EF433BC4C514CBD158B8F3EA1B3463E6C7E473E27905B3E9A3D07BD57B34F3EB8DEDB3DF355C7BD2663883C056A023E90FDE53C56581A3DEF1902BD9CE0C33D74A0C8BDA442B5BC461B03BD091B253E536543BD260269BCBF92063E2FA9143E691F8C3CF920303E95EA9ABCAE6602BD2E82FBBC5E4E5F3DDD801E3EBE7C473E5CF52BBE37C5AC3D83C009BE25AF25BD276D5FBE787460BC616511BDC432263E76EE03BE8C49E8BD37BF963D5CD4563D73F5E83D7CCBC1BC5846AABD83C2F5BDF744A03C8B2595BDA8A8193D236DE6BDF0D5AF3DF8E3073D15A70B3DAE6D0EBEA7F1643DD08056BD5A03643C851E613D9C97AE3EA972D93DFC4684BEA746993D57E553BEEA402F3E693B023E32C610BD4E43703BD842B13C44E7DD3D2C82093EFCC004BE20C6653EE7CD543EAF0ADC3CE22A54BD0C75B63C2D66753DCA39B83BF141FC3DBC1E263ECE33A4BD6115A6BDEA752E3CA4CF6FBC6EE0F6BD8419C03DFC1D3EBE36ABAF3D3EB9F7BD7A026F3D175823BEB3FF0BBE44ACC83D915A003E31F114BECB7B003E0F1A3ABE8FC81F3E4B5832BE5AD55BBD9661573E6EAFAABD67C870BDB71F9A3D04E3AABC709F4F3DA7CAE33D0F62FBBD15945D3E914087BD754F0FBEB93C3C3E2B17143E19C9F73D4C0180BEEBDDFEBDBBF9F33DD47FEDBDB730E5BD7E62A5BDF28CCDBC0FC6723DC42523BE5ACDA83C8F563D3EB9CA343E97F2263E651F183E108144BE6A45ECBD8295DA3DF5A2733CEC10513E53F58E3DFE5420BEEC08E53D5344553D68E6913C05BE03BD2C4452BDA74F1FBE376194BD5FB8FF3D794A06BDB230EA3C94B724BD1C3FEB3D0A8D8C3DB0E79CBD9634F13D0869A83DC386413E893E353EE4AA52BDC6FA4CBC97425B3DD50D163E5F455BBDDCD817BE714D4E3DBDE2B2BDE34D073EBB8C003D4257D3BD8566B3BDEA3F96BD1A58F1BD6FF15FBE5954BBBDE746583D820F86BD82051CBE587028BE98E8593ED9EA04BEFCD371BD9262C6BDE47A38BE7B6E1D3EB53F183E30946E3E4E97863D61E4FF3D2BC271BC78511BBE4D164ABE146A463EB23B58BED01D063EF8772A3E3846BD3D899834BE929D6E3D866F93BDAA8D61BD4E8C25BD7E880D3E2585A83D4450693C4433853D629A5A3DF79E5CBE621FA53D6968633E702C0FBE189F343DB957F63D0FE32DBECAC9EFBC805427BE0F7EF63CC2FB21BE4382B83DBA99BFBC32E5BD3CE47CB43D126C49BDB22B44BC2537C43C90C7CD3CED25603C175196BCEADD363C293E863D7CD11B3E7C7753BDA544B43D254F57BEA198E1BCFDD70C3E5C46713E1B7D8E3E4861243E652F633EFB88FEBDECA99F3C1E0813BE3C650E3EC5AA8DBE696258BD517406BE69EAFA3D22535CBD39DC043ECC88E2BDA671C73D40757EBDB05444BED9A82BBE3B34853D3C3BF23DE37C483ED521C23B5A10B33DB7058EBD0903713E2E1F243C38247F3E5A2DDCBC9C1775BD7F67E7BDAC5E3CBEA7C960BDA4E988BE6F93423E4B8D66BDC4FE573D77ACBF3C028958BD12C5D03DF97A90BC15358ABCA4130FBE9843AE3D1DCD743BE21492BD7A7942BEF3EB2BBD8206C13D5C75083E2E6B69BE17BC5FBBEC6D573DE869EEBDC59955BEFB1B1B3D7CEA8DBEE746DDBDBB9BC5BD8655ECBC211FB03D9FFBFFBC44145DBE185D02BB8C79B3BBE9FF2D3EEF45C13D497D9D3D8E77EC3D2AA0A1BE0C4D253EE2B806BEDDC9FDBDAA0FC53CBFF11BBD80BBD13B95C44C3E4AD2763D230A543CB109823CA4B00D3D7F395D3C400053BE6C01EBBDE4ABA8BCE7EE99BD976C1C3B791B41BEB258303EC5E25EBD4F4E54BD07F51DBDF3BCFD3D6E4EC43BDE5B96BD85A1423E3240C7BC39C0DDBCF5151F3EA69A2ABDFF708DBD98EADB3D715356BDE5360CBED181E7BD50655A3B81178A3DED2BCE3D2E4CC2BDAE2BED3DFE58B7BEA11DF7BC10F0A7BD752ACFBD568E6BBDF9924C3E7420F5BC1B4ADABDA65D5EBD3646C33C144C5B3E2B6B4C3E25FD25BD0E3B383DDC0DC5BD421EDEBD26D64CBDCECA07BEDBF96AB99DCAE33D8A8F50BD858BDA3DCA7E143E963A903DD8D0FE3DC5B18D3EFF47E5BCD4A0C4BDC440ACBE83A1FBBD477BDA3D118A88BD7F0AFF3DDAA53BBCC7A3943CA83BD0BBA79626BD85AB3E3E6FA0BABD9D7E063EF71B77BE7FBBA4BD29601DBE16CD1DBE902FE33D0FA699BE772957BDD72D81BD6A3D2CBE564D253C7E2D8F3DCEA52ABE12F2B63D9960493E0F15553C31D2103DE7FDF33B85C4E13DB4BFE73C25A838BECCC6BD3DB4EA5B3D9AE5263BED7D243E5D9126BC4338B33D12C1E63DBA26333DCE805C3EB83EDDBBCD39243E1A83773EE931F9BCF7D82BBCA29B92BE0B421DBD3301CB3D4475303E0AE88DBD7D98A2BD35A7D1BD2AA5AF3C53C5A13D58A19ABD5221C8BDFBDD363E7282DE3D357A123E0D7EE93DB6AF89BD19309E3DA188C2BCF4DF873D961E4B3ED4F935BE302E083D3BB6FC3D82B6723D44DA693D0BA050BE99388FBD4AF8203E3D32C1BD32F2513EA6C9AA3C49A35DBD12A6033E7DC464BE98F9563E9A84ACB968EC58BBCD18E33D7D60DB3D24FA0F3DC0670FBE31F9C63C1120963D56BD1DBE2F62583DE1A3933DAA487BBD9272003C4E8E4A3DB1DEBFBDEB43E43BE66C063AC3B6E93DC9298B3D438DF9BDB0BFC7BEF83DC53D509BB63D5752923D26055D3DD7D395BC21E0513EE7B7F0BD9F76623E8918B33C68C2333DC7CCE0BD0AC4103E3D25403EAA0592BD677040BD5BB2D4BC63FE6FBE16B7C3BCB1B4473D83E6633DCF4B10BC9D67F63DF86D75BB8ED7B7BCD25F443ED95D483D9CCD14BAAE01333EB9BBCFBDFDB602BD2B308ABEAE8382BD4BA4A6BD42F5C83E4641E2BD5D2D20BCB641883DC22C23BDF1E04FBD57FE353E618FBABC5C560ABEFD3FC23DA0CA913D3769843E4E20CF3DD7A8EFBDB6F4CBBC775A0BBC9DA5ABBB17DFE7BD1F182BBEF7048C3EEBB45ABDF7B4103DA8DE183EB8EAB5BD344570BEC84AB73D1AD70ABE79E13EBE90511C3EF709BA3DE7BD1D3DF65BDCBDC08E6C3D5565843DF0A092BE168623BE6892C7BD80A12BBDCF6A8ABC3B6A8C3D37B0373DD0A012BD69FFAABD443D8D3D2594DCBD6690073E9B73CC3C33F24BBD621891BD3804073E79DF843E22AC62BD59DFE53DE0406D3E5D08F63D1ED4C53D1CC5CD3D993FF63BFDBD49BD1CCF2C3ECCB28B3C4B60663D7D62153D9A16243E8C44F93B7F7C01BD33F4403E435820BE346C55BE3CF33E3E323FD9BA7899CD3D2717203DDFCE273C0A0C69BD7E21A3BD74FB2C3E979D2CBD83C38B3CFBFE1DBD79B8AABD79E8EDBD2541803E54D6FA3DA6F29FBC3F4660BEB6702A3E9FBB8ABDA9D8EF3DE4ED343CD9DA163EB835A1BE690F0CBEF15D70BC640AEC3DBDE5E2BD746170BDD242DCBCA613573E52B61D3D2A7B3E3E0EBC0D3EA2A6483D768ECF3DAF69CDBD703ECD3D03512A3E560D48BD4171183E6076683DC06635BE491D13BE0D8A463EB2CF823D0E7ABD3DC7DDDFBC2197223D6E5F803D1AEC303E069F2EBE2B45D03CB2343CBD3AA1033E71741DBD1BC3953D90A835BEB8EDED3D1295973EAFB0083E16A9B7BC540831BEDDA4DA3C5DBEB8BD643A893DAE2F043C6994D33D7C41CD3DE6E2C23DDD8F6ABA58DCB4BDCEA60ABE47B60B3E8033E43DA3A6C03D6178B1BD1F353B3EFB1597BD03CE7B3DD6668E3D47280CBE962C493B572F2CBEA90665BE0C03F03DA5D1523E0D7A4F3D1D8F88BE9473E4BCF97AD7BDB8B5293BF5A5913D52DDBABC0A29E3BD90BC5D3EA120113E1BD9633E60D99ABD28C5F73DD137BA3DB5966CBE5369E6BD39BEA1BC48E5373EC37AA83C586806BE95484B3EE0536FBEC70A883DA3D6B9BD0A53CE3D07C3F1BDDFED53BD1043D13D3D2E8ABD368EB63E4223853D061AD5BC07786CBDB62EB5BB22A9C9BBF1A8DF3D499E313C4003E53B69C3753D3BD0FE3D774E0BBE84CBF1BD460FDC3AA17083BDCC2EDCBBAF3381BC14B256BE5357AFBDC183263EC17F1FBEDBE449BD1FB7623E5CEF063ECFB93C3E762D01BE8410A2BC8CC3A2BCF5CF00BE7C7D2FBE49D1AC3D7441E4BD9A29133E5580573D79F95F3DD09057BD8340A23CD19B5DBE191CB3BD951DF2BDAFD7D83DE501D0BD9A0F9CBD0CAF5E3EB2E786BD4114FA3D12C5A03D0D0D21BEEABA253E4931623CE34B25BE4E2F183E26958D3EA561523DA97A5C3EE26C9FBC08CDC23CF5C3B2BD4C00243E106B60BDE4508ABC80C704BDBD5D30BEB0BAB43D7796ACBD6AA2C4BD3A56413E9872883D090B5C3EFA7436BE6E374DBE2471A8BCD1A8A0BD90AA1EBCBAA876BC326C05BE3BF69B3BED82673D71CF9D3DCBBF673C9A90AEBDF375E1BC2C283BBEDBD0CABC0D3B3D3CA8B9EB3D7DE0D7BCD4124FBEFBA200BEC3AD06BC60C690BD9FE6C8BC0D946CBE8578513E67BDD33B8B483EBECE579FBD1EF81B3D67ED43BE16819C3D90CCA0BD0F1A61BE5D0B743CC839C7BD0F83973D65852B3E7FFA943D2997393EDCA63FBE63994D3EC72A80BD22C7E63D393B32BE3508F6BC42D66C3D059D4BBEAC998C3DC4C14DBEF9E39F3E9ABB2DBE151FE93DD616513ECDFD7BBC2294D53D284754BCAF19EE3D6893ADBCE9EBCABC57FEC8BDF5DE833D445F52BD44AEB3BD59CAA3BCB72734BEF3CD163E1A4851BD74A07FBD80BFBA3B09AF2E3EBE59103E5B0D12BE1807D43CC3A69E3BBBCE22BDAEAA84BA022E0C3E6D25E6BC96FF073E401A62BD5EFB72BC176566BDDF0F40BD5CA30BBE7149D8BB5118853E1530AC3C6BEC083C65F66B3E012890BD3D2A533D3172DABC5F098CBB9E0C00BE2EDBB93DFC35DC3DBEB479BC0F140ABE559BCC3CF351CDBC6185B43DED181DBE8BC0DE3D6452E93C65EFDDBC91ADE13DC7D0B93DBC08913EA369DEBD33C13E389154A2BD9842843E5DC1A03EED56883D8BE46DBD1A71793EA8CA61BB0C5F54BD238A96BD109322BD5C7318BDB3BFB73D2FF535BD24037A3D7ABE6B3CBF2BE4BD4FEE013D99EAA83E8ECCCE3D80E25F3E3E4D02BE4AB7E13D48D518BE01801EBEF4180A3D1C0B473EED859A3CB11534BEF4698B3D8508A73CCC0E19BEC56D9D3D7BB99ABDA78F863D212A413CCFCFB03D04C089BD46C4A4BE7F84EBBCC516D0BCC4B64A3EA78593BD77AD87BDF784EB3D0EAF803E33B8253DFC3C703D1FFD153EE5ADD73D9ECEAE3C88AFA7BD4CED983D579BBD3D92B4493E8189883D22C4EEBCDF42A0BD43418D3C803EDEBDBA9EE2BD072844BC5B6F393E52A6193D9A5338BEFD426FBDE858A1BB05F8EDBCB1D4783E39852FBEA7AB253E5827D8BDB38D28BE5E4993BCBB7DCF3D97D7ABBD41F80E3EE53117BE2152753DBDEEC53DC6AE37BDF1B24DBE19B8ECBDB8F62C3D9C9333BE02B3E93D96E7713DAEA8993C5825A7BB9D6F84BE83D8953C06D42A3EB1859BBB8A0699BE0D5FD3BC67B561BCFB49E63CDB0630BE3FB7D53D75F5A1BD7C84B6BDD49BD8BD223BA23DBCEE953D979798BD4692D1BD69D59FBEA20C303C0905E4BDA587BFBDC4B42CBEC498F8BA74A41B3E598242BBC54A31BE6FFC87BDA437A4BDC2363E3E87BDE8BDBE59BDBDE42604BE55EAC4BC5143E0BCAD34213EB086323D75F52B3B98B3003E26FC893EAED721BCA645373ECA5274BD6266833E26E6DB3D91F4273D9F19043D44DC2FBE01CEA0BB9F1E403E48DC8BB912B4813E407368BDD56782BD8EB6703DE236163D6B37173CAFE1B63D387520BD12A9C53D859D023DE25F513EB109693D3E1888BC5249853B1AB48A3E5F73553EA264243E8B030F3EC50204BED1248BBDEC548E3B35EDCEBDDFA33FBE8ED1063E14AB24BC4DBC683E532D4B3EEC19993E4CDF1FBE3AC4243D0EE9583DB8018CBD93F2AA3D64C3493CAA0CFCBB3C828A3D065DFFBCD47A2E3DAD19733D58E69A3B74A8C03D369089BCFE79833EFBE6933E3DAC4D3DFE30E9BCB68BD5BD6CBBE63D020315BEED0C023EF26E1E3E71AF17BE51F26E3D65756D3D190AA2BD4FBCB33D37D7C7BD4A8BF6BDAC6DD9BCBED0213E1668353EC62990BD5A585C3E9B0030BD5C8BAC3D2B5E01BE376BFEBD99B29E3DF7F36EBDFE323CBECDCB823EAAC2F03D69D39FBC0178913DFD84F5BD020A7ABD83AADEBCB211CA3DECB947BE298F243D8E5A043EB1AE563D3305AEBDB56A13BE4F2CC4BE919621BE90F3C13DA205DCBC413A3FBDAB9CC9BD7E463EBD69F8D3BD00F722BE28C1F83D789F833E0E4350BD74951CBE148192BD207F8CBD9A21793DB4B84DBAF7CAD0BD45B7BABCCFD565BEE2E3183EDAB521BE69DAC23CFD07DD3D5872A3BDB50A8EBC2158773C882F94BCF189B6BCC897253EDE4FA63D5771843EC7A908BD128B663EA83318BEF9277ABED5D7FABD703D433CD09C093ED36E5BBD9D5E033EB110A63C33DB2E3E14F1E2BD2B61483D192F81BD34569F3E5864A43D414481BD9652CFBC396BD1BD05A740BDC8D99E3D7981FDBC0F656FBD36A3193DEAAC2B3D8B9F00BE0B69F63C2858D93D28F7753DC68D57BD3B58B1BCB2DD043EB756803C74CC9CB90295A6BD24BD7B3D5FDA24BDA1DD2BBE3C96FD3B8747BBBD9859F8BD731CC9BD2155BABD41C102BD165FAB3CE39A64BDC1B21B3C7C2D9F3E719DB3BD56B0D6BD15D4FCBCDD5458BD32C5D5BDA2CE283E7F90323E54A2993DBCAD1EBC58B527BD9583C73DF2520F3EDB9E8FBD7BA327BE7C659EBC315A9E3D0ED212BE978278BD7ACE5EBB1656E8BCAD67183E3DD3D8BD790D23BC7BBB11BD445E3C3D8A3915BD483A37BDC1B6143C5F30523E6015813E614F8D3E76BB493E8B4CA93D6796863DEDFE4D3D674CA33DFFE344BEB8BC40BB8A3BE9BB8395B3BE71DD84BED3A043BC8E35213D70750DBD43074FBED1C0603E920A26BEF0242BBCCC679ABD1AD74F3D06C785BD3BE36EBBD36E4E3DD643B13BCA65A83EB7C38B3D658E4CBB9407A2BDDAE66C3EDB2D553D17CC523E0EC069BE57F7F6BD61A988BDA3201ABE5767DB3D65F066BC3FE2593EBA986ABE06A6273E452980BC0923753E4017223C1607F0BD4681543E1EA367BD0AC4023DB94DDEBD71B7083E397EBABD73838FBCD58BBE3D701C5B3D19C73E3DD7C2C7BD3AA8813C8F19923D6FA63FBC160EA13CEE379FBCC907D1BCE32D0A3E48105A3D192C063DF40CDA3B916F08BD5772843D233FE03DF30C63BD9D651ABE9E761E3E057DE6BC3E33AE3DDF40583E8F48EFBD23C581BEB5E1F33CEF482F3EDCE876BD34DB1A3E8380FF3D8921773EE0058A3DA84F4DBE22BD72BCB452313D7455B3BC3C1100BECB6A2F3E66F7E93CE0C5C9BD7CE6C0BBD66C423E0AB9213C4DD082BE5DF590BE60CB02BC6EBBD0BC260E3DBB1E0A16BE14E1863D19D1C8BC17CD0CBE57D5B93CD29DBBBD527838BE1A3FF13D139D953DF23D56BE3F938E3D0BE3A5BC9F6B1C3DF1C4DBBD66BC76BBD15F82BE3C6E9BBE13379F3DDBDE973D59BB4EBE4811A0BDC0BECBBCF714313E5FF54C3D5F420E3DFCB4193C1E5978BD3D08203E252FFE3CE1C39FBD543E77BC9FD4903EC7FBD93DD0952C3DBB780B3E5B1A293E1FB5DDBC4760ABBBC2A6203DE3AD8C3EF95BDEBAD1211E3E80B48F3D444E513CE348DF3CCD1BD1BD1B9790BD61689CBB692C91BDD3EB97BE4AC0283E9EA1C83C417380BEB45D523D367CD8BB25F251BD8E9D893D77A48EBC250B343DF522713E11B024BE48FD44BD058C8439FA8F1F3EC533323EFC80613E21B74FBD0226A73DE2E4A8BC847666BE747C243E917C18BE123A403ED3C0B13DD6BAFB3D3A3177BD32D48E3D1995C43DEAB0323E15151EBEE4B0C0BD364E5F3D9BE5C7BC8320D93C409B1A3C1C30ACBD2171B13DCD76A3BD5639AC3ED6E11DBE1E482F3C0CAB0DBE1EC9C3BD794E6C3DB2DA1FBD8EC67EBD107B1EBE6E24503D9D5FAABD94F4DE3C1BEF0CBEEB2B223E4CA61ABED3A5C2BCB7DA1C3E4F4C5E3DF172C6BDA01DF23D8C22C9BC8C940D3EBEAC3DBBAECC71BE60E1FD3D6597F7BD6653533D5924FDBBDF1D5B3E48B4AEBD0C5BA6BD25CF80BD4132C6BEF0E44ABD314AC93D4676DFBD11E1FDBD7D19293E6CE787BDA412BF3D5AE89CBD0190CFBD6BC9BCBDC5DA763EC93A43BD90C5F73C1C5C153C51D23C3DE68987BDD4FC533D1BF3BBBCCB03D7B9D19AE03D461292BC157E8DBD17EB3ABDB518EE3D1B43983CDA30CC3EBD3E8B3C35438BBD0BC45BBED54B843D8C92DFBB57728A3D6AFEFEBC1F7EDABC551F1D3EFDDB7E3C5FB59A3D3A9ADABD4E98E03DDB9706BE32D119BE601A85BDCB47123E2EA873BC1230C03D913CE6BD22F62FBDB0CA7C3D77403A3D2F45353E319149BEB4A0A3BD7B24573E3ED625BDC9A3993CD595C5BE06FC61BE2020AC3CE53B36BDA1DEC13D297435BD651C06BEA48DC2BCB89E39BE3D997DBE70E180BD15A2B13D57DB0ABC6A1E1EBECC1C2DBCC06C563CFB68123DDF4488BE6AB4413D82ECCBBC1090873DA7CE59BDB6A3A23D2E43183DD309A9BC10AB9EBE33B1B43DD1BDB4BDDD04153D6E5C13BD626F0B3EB08801BD80C2A93D7F78193EA2224BBD1E5C8DBB6B42613EB4DBAA3D172860BCC72C413D136F1CBE7CD702BE12C003BEB3D379BD240718BE67B80DBD0F13F03DE7BD0EBD8627893C3CE80ABC98052F3EAF8D1E3EF02A92BC097DB63D25630E3EB5E110BD34BB20BD4E59DABD2C6E1ABE96778EBE5CE243BDC732C73C0739343E414B13BE2C6AA7BCD9426B3D18FE0A3D677F3BBE28FB783DD22194BD14D09C3D374D583D22BC0BBD55943DBD1F3F7E3D7A2876BD453A783D4DFD87BEA553223D8C1D2F3D598AC6BDC23E2D3EBFD58D3E7B2BFD3DD711D1BC7EF7D93DF8861A3E09C686BC634C4E3DA1C3833E1637BD3D3FA6DEBCFF82273EA4344A3D4AE7F9BD3DF95ABDDEB60EBE10311D3E063B47BE910FC33DA29601BEB8F673BCF3F20F3D97CE3ABEE891BDBD598787BB07ADE63B1F2A873E75B75B3C6B885ABE8509013CC7B4C7BBAD5BCBBD03CA9DBEAF5D0E3E6DB053BC4CC270BD5E4EB43B6B0B11BD9F1AD03D86151FBDFFF8F83D9D5645BE5A30A3BCD91C3FBE8E2DDEBD5E774D3E5FBCFB3CB56108BE619D90BA3965833DA5945D3D0891953D6C6F84374BE409BE0BAF993DBDF321BE3897643E29860EBD6251153EFDE2523DC09485BDA478C03DBDE218BED32432BE2E32B73BAB54C5BD63A28D3CC3F280BD644E3CBD8F85B33DF4EA58BE62A2C73D113AE9BBAFCA1C3EA17E3B3D8A6481BDBAC079BD17056F3DE1B689BCDD4D8FBD3527F63D7943C7BD06998D3DD0EEA3BDF3595DBECDB344BE52C27CBE13A25DBE5F42763E6ADD083CCA06DDBDA19ED43D719D4EBB63DAAABEB9C25D3D09187D3DF08A4E3E36BFDF3D65548FBDBDCA3A3EA7B7233D5FCF4ABD95FD0C3E07F9EA3DD1D814BE6737313E5DD5E03C482AADBC28943A3E7DBE193ED1AA7C3D15F6C93CA50B98BB702A263D87D928BE7E9028BD613C493ECA808CBD8E37353EED1C98BDFEECA3BD9452BCBD85B7293CDA24213C99CB18BE3521C63D013BA83E5B81B2BDB63A743E5097C9BD2424DF3D275D0EBC1E24343C7A054E3EBC96DFBD3D9C7C3DC5F968BE052252BE9DCD8BBC7AE506BE988CFCBD6C31273E273A293E503F6B3DB118EBBD191AC93D218EEABB016BB5BD394B203EC83863BD46D80D3EC1E0883D93F5523D05FD4B3E6E2B643D4F4A2F3E35A696BDD89211BED398D03DD9C49FBD04500BBE559F323EE10518BEAEB1A4BC458B29BBA507173E23E79A3D1D3550BEF783A8BBB63538BDD6FEC4BD6A03E83DBFB5133E955310BE83F89D3C7B70563E7DD6D7BD69201ABE20B6723D290212BE92C4B73D1AACC4BDD9E2A6BD673D0BBD9385EB3D33EEA6BD686533BD53A29CBC58E769BE12E7413DC9523ABD4ADA67BD186E9F3D0730C43DF463E03B575B35BE09F007BE8B44F1BC396EA03D72B4CA3DDF5965BD7965EC3C83E1F63D7C638A3EF01C243C59AAB5BD7392D83DDAEE7F3E549CC23D5D6A403CB3485C3E293D9D3A4A4DEE3C81EC12BDF90C543E098A97BD9E86A93D5E13B3BC707E37BE2520033E7EBDF5BD079233BE86EC223E3D09263E5DDFF43BA961123DE59B8D3E2A0339BECB6EAE3CBAF44FBE9E0940BE44005A3DF5C707BE618105BEE30928BD6E0E24BC24514ABE0EB0E8BDE3F64CBE7F1BFDBC44BBADBD99F518BED64A443D5F54993DA6B8143E5FD94DBD87856BBC93CBC9BD13CCD4BDD78C90BDB07DDA3DA94B423E518ADE3DB2110BBDEAEAD73D19CC5F3E42A0AEBD5F01303E3210923DC1712FBDB68A493CDF2975BE20E315BBF5471F3E3B2492BC3117263D31F3153E26B015BE5FFDD9BDA00C68BCD70E8BBEBA49023D72B4B13D8DA124BE55470D3DC98A7BBCDB5922BDDC66A13DB75F7D3EB3327BBD78A3463E302F3C3EB4FACB3C222D023EDF78193D4D1C2C3D0FEFAB3DD47408BE8859D63D806E223E1D598CBD428183BEA8BD1BBEEA027C3DD8C4D7BD6E9D503C9FE03A3EAAFCDC3DFCDE5C3ED724ACBD9659F23D3574FD3D78E4AA3DD25A6BBC4C0EB63DBA5786BD57F4DBBD30DB263EC764EA3BE8B61C3C25EE40BDA35429BDE63623BD48268FBEA7B509BDC13BF13CCEB0513CB298503DBF87883DC248883EE770563EFAD1BEBDF4345C3D55113EBC1E3B01BEF4D63DBE7C5E60BE93CB1BBE4FDA073E2330003E9E6F11BE0B610FBE9C94B03D340D82BDF4B2DBBC27C63EBDAEC295396E825FBE8C0C6BBCDD736FBDEEF68EBE4AFB183C5562973E7AFDCD3C03A92DBE8DE9B1BD4991173DB92E80BDB4AF3B3CE6A116BE2FF829BD169D7D3DC84C3BBE7CA4843DF1F98B3E794C753E08208CBD7866D8BC9CC2ABBBC41693BDBD93B8BDE1D3063D8C7584BDA1BB3C3E33197FBCE6BADA3AA139C3BC6DD4A9BC343725BE42EC003DEDC776BE2525DE3D2DD4223EDAA641BD12164ABC2EC036BE0AE8183EEC0018BB2E429C3CC17728BD4B740E3E092F02BDD314D13DE88F9C3C49E179BD255B003E8F3E39BE9631A43D5369623DC33385BD925A85B9008DA73DAC752B3E6E1537BEAF7E38BE6DD2313EDD813DBE1A544CBCDCC2F6BD64EC753E70C0D4BCE14781BD05C6A03E61CD4A3D48B9303D83D866BD1098A53D2557073D904E82BDCF7C24BE7EB361BE293F1C3D990DA2B904D2553DF0B5A5BBD63751BDD2FE013D5567B0BDBFE727BEBD0A8A3E33132BBB115759BD8D3AB63ED50B35BD3086EF3D1A5689BDD10BB63D2D28453D53D4E5BD789110BD6F8DC539181C4C3D7FB79A3A9433FDBDB7B1193EEC712A3E721CC33C029FD1BDC53F82BD45E2073E822975BD4EE3923CA9A22D3E27C158BDC8BE5C3D6C4107BD7AEEAEBD3715383DEA325FBC68098FBEA6E122BE5CF5223B8170403E912C1A3D82F90B3E95C5B13DE96065BE94D15CBDC66F57BD4A23563E9A30173ED5F775BEFABD31BE47BE5DBE9490B73D360B04BE8C44433ED3F0F03D4438523D9CF67CBE8847A73DEEEB523EFD952CBBC788963D5A82003EAA58FA3C9523B63CC9070FBE66DEC2BDCCFA28BC7A3D34BEA248B13D7C2679BD328B07BDCC10093E430901BE5554AE3D380986BE6549A6BD87BA9E3DFC5EE83C805EE2BD082EAB3D7CEE75BDCE31A6BD8DE6E7BD1E082F3D91AF92BC25240B3D172898BC0A272DBD1EC60B3E40D88A3D7D13B53D9C89A33ED62574BED192FABCD310B03B09214E3EFFA2FEBDB2E0FE3D5FEFF7BDC985833D0F8D673DC8570B3EC7120D3E6649A63D147D2A3B723CEDBDA793623E8E69C43C5DEC083C24AF95BD918E93BD46B48C3DA11CD13C3057E7BDD48011BEBF16293C70B2793D86A8793E77D4D33D7F5E903CF6BB46BD39B3073E73FF08BEB2DBE43DB2F78C3D4D57B73CD3EA12BE6C572FBE5096993D779A2CBE144C613ED64A833D26A933BEA0214F3BD55F96BDAED8093DA3658A3BC96A0EBE1292C539EBD9F43D7A73BEBD8FBFBEBE5B34A2BD559E143E6DC01ABED00C743C0676273D3C25AC3D5C076CBD1BA5963DF634B7BC7193DCBC15C4093D1FDC8E3DD4DC95BCE67D093E7369243D3E0901BC065FADBDC55B55BEE53A893D2A93F83D6C9CC2BA3B98383EFDCD033EBE44F73C963A4C3E218F463D654168BE7CC54ABE04300DBD609708BE67BD723E0489D43DE9F9463EA78925BAF6148ABDCFDAC53D597E1D3E58D2E03D98F800BB3DFA1FBE60D6BE3E5421F4BD255626BC7F2790BBBEF10EBD9898EEBD53578DBDE7F47A3D06C43F3E06101EBD65B9903E5F3F02BD90C82ABE36B5743D3ADFB7BDF77D2DBE32F60EBD5CDE54BD6A9412BE36D7E13DED8B01BE2EAC01BEFB72413E9BAB18BDEA153BBB9465343EC6F39CBDC444C9BDA2522C3EE09422BD7A9630BD8DF4D6BBC5A94D3DA6A12CBE02D325BB2DC0EC3C9EF886BD076AF13D9610E13C461F033D19E8373A3D684BBE333BE63D801E0E3EE085813DC8EB523E818A97BD170C3DBEC7E5673E149128BEBCD6EC3BD955B53E5BDE37BE086D43BE6C970B3E087347BEB2DC69BD810541BD7B07AF3DC989A33DA766EB3C0603B43CE633933DD47B883DC4826BBE08C26DBCFDF85ABDDF30123E39191FBE3FAA2CBC42350CBD5C862DBDBD9F1DBE17D1AABACB64383BCEAE7CBEFC83283E82C254BC7309083D5E3BF7BD014B92BD782C603C6FB435BDC690993C68110C3E5737673EDE262B3E9BD6FF3DDF3015BE26209F3D2482D73D6023473DF23FF8BD17862EBC745D133E23CED83B7EAE08BE15AB453C33224CBEA7E72CBE46CB82BD25A0F93AC70181BDEA5A62BEBF424C3E026A1FBE1D6C0CBDC2470E3EDB34D63DA6BEC63DD8D6C2BC3229D83CBE37633C528C2FBDF83EB0BB8993633E53C516BDFD2F49BB9F79B9BE92FA673CFAF9523D09CA243E6DFB33BE527500BE41EBB6BC74E4393D0992FCBD34B5BC3D9BC2DFBD6297ACBD0E49453D60AB9BBEDF910E3D851C7C3DED5854BC008E1ABE7043B9BDA41DE9BDADA31B3E137DE3BC1AE11BBCD0E5A73DE705A4BC950406BCF20F21BDDA767BBEEEC194BD0ED8ABBDCF63E6BD6B2FAEBD35926B3E047C0DBEAA3D4D3E5678273E7EC62C3C95F9ADBD5A1C0DBE1B3F203E61AB343E817DB93D9404FB3C9D49323E034279BEED142B3E5C44B2BCAFCF0D3E7483573E3D91EEBC0DC9B6BD68B24D3D480FA53C8B8BA7BE16BC583E68F9083D95C5923D7FCB233ED7A98F3C7AEB52BED0AE27BD62B8FC3B6FB56B3DF48D17BDE857D2BD2BF317BC956983BD3A67123E8482EEBC62F2EB3DCAAC533D28109E3DEFC51D3C83CD0E3E49A59C3D3402C23D5E42A9BC48B1293DC69D46BE35E09ABD197410BE00373D3E4A6011BE6DB5E33C798AABBC2F7058BD57D2C6BD76AC09BE8E5E5A3EADE4FFBDC77C20BDDEB1713BA78E33BD697D33BD7487083E98C1F33D93537BBD8E3FC93D81363B3EA2EE483D10279BBE8C0DD8BDA43128BEB873A03AE06C8B3D2686EB3D6EEA2B3D8732733D2A2BE3BCD954A6BCE98A973CD032AE3DEF6C42BEA20D393D00F143BE823E41BDB27989BDF0626FBE24E7123E90E711BD1572883C91D7C6BDDAC516BE27C7553DB45618BEEE390FBCB18CB1BEF23732BD5415143C6B4D703C7A90373E50E787BEAB0F253D8F07223E73101EBEF49257BE33E9F4BD1746133DDEFE73BE1AF9E3BCE442053E9F62D23C08116E3C5021D0BC77F9103E4F0619BE9066813DC4A5F0BDFB8928BCF4EC743DE1DA1ABEDBE8CBBD771607BED7AB69BECA48A3BD5125FCBC1D0BD2BDE9075CBD80A9C73CB88D21BCA8C83DBE40B946BEE1B5BEBDE638423E9AEF333C8FA659BE8309323E2BA1D03C37639EBC9F2E90BEFA1332BDCC0B813DC2040BBEF5C5363E01803A3E5CFE4EBD75103ABE4FB2F73D5ECF40BED558223EB3500F3CE23D98BCAF9396BD714C9B3CB6C67F3D6252AC3DDAB148BEDD376A3DF5EE7E3CEE85703E309DD83DB72B3EBD5C65383D37A3413ED573313DA7A440BDB393D8BD373DC03C2EA6D5BD1470563D46A47E3CC4EB98BD5172F8BC9C64E3BCCE201EBDB4FC8E3D9B818B3D36418FBD231A37BE271EDEBCB345993DD90AA2BD495E123E9E204BBE9D867A3DA9DBEB3CDD80993D4DA856BD4FE972BC23D6473D220F903DCF25B93DE8B6813E7BC11FBE0BE8863DB379DEBDF9A1B03EE683B53D08B27D3E2E7CAEBD8E0703BDAC343A3D5A54DABDD98615BD2E5728BEDF8122BE5DAFFC3B816497BE7756AFBDBEAFB6BCECAE373ED4B6F1BC8379963C8A2BC7BBD89180BDAD67E0BDBC6D7B3EB827833E91828E3CAF77D53C06D92A3E686A663E9542FCBDDF423F3C561DEE3D787DA7BCC9349ABD7ADF083E3AB3353E5414D3BDA47E653ED55719BE22947B3D2BA1BBBD419FA63D4BBA56BCC9CF62BC86B2E43D37C4FEBDE27C7B3D657172BD835307BEA081083EDE5C523EA371D9BD033E38BE5C656CBED0BEEA3CD4D4B13CEE70DE3DC6F6A1BC2FB4C8BDCE4A453E1E7B2D3DBED9093E36AA98BD1F3A193E434D49BE5481F6BCAA54DABC85E9F93DE48083BBAA4CFC3DD06D1D3B1BC4963D5D18113EB43E0E3E2952013DDE2DC73D0E93DE3D94776CBEF9FAA53DE12404BEA29638BD528598BE207BD6BD74F9323D5B64053D0799B73E9DB7E0BD5DE87EBDA6A5833CD66901BD14758EBD758B11BDCD4FFD3DA07CA33D1DB3B83C70E1AC3CD76CFDBCA6BF4A3E0007123E1E09643CD352F23D78C77C3AE677FBBD25F9033E70BF573D0BFE9DBBE3A8C93BC307AD3C4CE2893E7E18463DEE6D6FBD97FD093E7F5B91BED8886C3E3B8CD03C025C07BE70DDE4BD6AF8913BD424BD3C6A748B3C46C0DD3D1E5842BEE6310D3E959BE23D46FD43BE65422E3D6A11873DE93A033E26AEF03D5639BABC83EEB53DE64334BEA4D0D93DD49B5EBD729362BCA229AB3CC842703D611797BE4BD91E3C5C0525BE0C4C173E50993E3CF5E4733D993FB03DB5DDCBBDCADD053EF00B61BE79AF283B9D1B12BE2060653DD3B308BEDB4ACFBCBD909DBDDEC5B03CDF0814BD1B00383E2A47893ED9C0FC3DBC1E763D8B53553C6AA8DDBD7347263C08CF643D127E08BED09AB63DC30F1E3E121B833D718E04BD2C3D703E989C8FBCAB4D363E8A440D3DC04399BEB1FB3E3E6851093E55CEFF3D23DD523EF4F3CBB9ED803ABE17A6FCBD6079A73D79DB14BD62E1233D94792CBEB1303ABECAFA1EBEECC8C93C3F3A203EE6DB15BD73F63D3DA208CD3D3F472D3EDC67063D00A2B0BDD15618BD66BC563D0EB9103EA3591EBC264485BB37600ABE0103BABCDF0A41BC57D7823EDB460B3DAB14853CB12C9B3D387B853E6341183EDE18A83A6AB7ADBBDE3C0CBE9CA6A73DA94D1DBE9FC8153E970B6EBB36BE233EAD83BD3C4144A5BD6D43023E64F81DBED878653D8C79AC39A763513E2B28063E8905143EE4684BBEE0C4C3BEB5FCB63D8C9026BEAFD13EBA1560E73D34C09ABDE5DC133D998DD63D8127503D170E223E6FA241BD5D5FDCBC7604A93DBAA994BD036B12BE3DF0FA3D7A691D3EFA3E6A3E18E7EC3D9D2F5F3C34856B3DE4EAD238EC83623EB46600BE9CE4293E13245A3D6AA1633CFB6D06BDE058713DFE55973D56D6043D324DDEBC23BB9C3C13083C3D7B9D903D1BA3723E07DA43BE129184BE5651CB3DDC8F82BD6EE773BD1B3F01BD90A268BE8E6EB9BD7C57AC3EF2CF44BD1F816B3D2188603D6B38DF3DC63005BDE874BFBDDBB892BCA42D85BB98AFF73D347BDD3B5AB2D83DA19D0B3E54AA813D7E67A2BCDE04F83D779F14BE8BAD03BC2FC354BE55D2F6BCCCD8223EB2F3803D21A086BDEA596ABEFD7D4EBD8625DDBDD901523D7CBC4C3ED42F903D994C4DBE31563ABD253E813DD0EBC23D9EFB273E339E50BD53E90F3E4E1B00BE4D59B1BD536E103E465A283D1DCFD03C7EE1AC3D0DEAD83D805BDEBD875622BCC2DC1F3E8C558BBD30D35DBD12E781BD07F334BEED49D9BC1412BA3DBEA39A3D715D95BA7988BCBE84422E3C717120BEFB0CD33C63BD52BEF3E0A93D769E9ABE3BFA3E3D1F54993A60FE313E6A3E913E46AE553E6F84E63D129D103CD155D7BD6F4AAF3DE20885BD77D10BBE8AAB31BD728914BEF6D1CBBD647170BEECA809BED770243E6E33DABCDAFE66BD43B29A3C1D58DFBC8B5DDE3CF17BA2BC31325E3B6580693D3A1FD83DC291A83C09CF8FBDFD73493C3AAB573D9952E5BD4DAC763CF66CB23C0AB3B0BD7CEA17BE63ADC93C8FF884BDB84DA7BE2207123D670920BD645FFEBC81D0063A114C16BEBF6F963E0C854ABE83060D3DFA8B3E3D6A33A2BDEC09BCBD9ACE33BE0B37C53D4B5684BEFBF2DB3DB27B8FBD0CA4C93DBBD0ACBC0F453FBDFC6AE5BC3B0E7CBD37F7C2BDF66568BCC6C5583C78D03A3EBDDE54BE96ADB0BDB0DCE3BDB237FD3D5B381ABE47411F3E18C4213C73436A3EE254DE3D2782643E8E42EF3CDCCA07BDC2C1D6BDF39F403DD7F38B3DDF2150BEF44B15BE21F539BEE68515BEEF6B0C3EA8BF58BDEAD125BE6FF062BD1E9C1F3DF227F33D61A6B2BDF98357BE2ADDF3BD0A0E10BED0F4A23D51297F3E6CD08A3D2DCD443DD814E23D5D83AE3DEA8E003EEC00CF3D2C0847BE5306013D1B026C3E5A91283C5E87233E5DBFA2BCB6C7E13C1E972CBEF5FDA7BD0DC545BD4261D9BD5AD0393E1E31023D39E1AABDC795AFBDEDA64E3EB5D6453C00FA773D8DA3D0BCCE761EBEC830B63DB0CC843DAA23DABDACC0083E82469CBE174D683E5591B03C5F3293BEA292983DEDBC94BD00D986BD1E170DBEFDD28FBDEE6484BD45901B3D49166BBCB7857BBD8CD7ED3DA24C473DCF9686BD8702173DBA58793EAF1013BE846CC4BDDC860E3EC6E87A3D0A64A0BC2ADD96BD6837BD3C79B0613DB28F573D6ED7ACBDAC7B333D104EA63D85ED5CBEA781423E599EDBBC1B55443D1D29273E04A0EE3D1778E53CC26AD93DBE699CBDE26B583D0D96D63DF45C1B3E0A9A48BEAA1B0CBE75A2793EC8364F3D2BF6ACBB56B4C93D4DD135BD4A83E93CED81E7BD1865793D21E891BEC1BD82BD300E523E9A150CBED915093E24B0863D5D375FBDAAB5B83DB36D9CBDEE02A93D60E91C3E1298E6BD88DE193EADE3473CA62637BEEC5A2BBE703F083E55FC77BBC13FBCBDC3CABDBD0F9704BCDADD393A4D6E883D60078EBDF6F447BE65B003BEB8B373BED83E83BD7822343CAAB36FBC9698C9BD33068DBDF7494ABD327D81BC1C86763CF20322BE1A5A393E7DC02FBE1B45F93D4F475BBE1D4027BDD7EB893C02D3C8BD67E71C3D9276E03C547A8BBE5C278B3D5EFDF63C1AC2033EF9ACDBBD51C196BC3F8882BE87490BBD14AC6B3C73819C3E489F34BD1B3F33BD417665BCA99C383E1F1160BB509FBA3D4DF72C3D03E71C3EA30FCC3D94F0B13D74EC5EBE4A40E0BD13F0B4BDC86E823C660C283E9CBB6BBEB072013EA4DA303EF98FC53D3AAEB33DEB438C3EBD14783DFDE7CCBD7710A8BD24BD3DBE45A9583E67758ABECDDDCEBD71144E3C05BF26BDD391113ECB22A3BB1D7516B9548E32BEED7A383C5CA8CDBCAC93ED3BCD31173D4035D9BD2B42C3BBB104AE3DAC84A93DC8C467BDE329843CE5C76A3EA4BB253E9880243EAF60753D1AD5253E0A131D3D22210DBC9228443EBF07FD3DA5F425BE83AE1C3E472157BDD5F33ABDF66559BD4F2B103E64EE1A3E592D9C3D1CEFD7BD6BAE4F3DABF2223DB0AD943DBCD69CBDF41B053E3E8409BEA6DF15BD8ABA14BE5284F13D2C9F09BE1566B13CA76EA8BD4B5266BEC72806BE2E052F3DAC319CBE28A8B1BD13AA28BEB30E8E3D2946183EF025073E64B089BCE63BCDBC88C6C43D0888B9BDF6B0983D97E70B3E0CAFC03E8EADC4BDF4A315BEF66693BDA4E7B93EB433EB3C0F3E23BDD5D8503C7A26F5BDA22B473C230966BDE49DDA3DFCD22DBCF0B4403E4FA68D3D0440013D625B003E57C5C93D2E30A4BDB0FD32BEFB4404BE47E4AABD5D3380BE26D3C8BBEAD527BD29AE3A3D5C24003CB3ADA2BDC8C73C3EA764B83EE0C518BCFBF3F0BD7BA0AABD2E73053E6112223EE957BDBD9A66CE3CB08A793D7492213C0C3629BDC25D133DBB012A3E20BFB6BC251A2C3E8290233E165ACC3CC16BA03DA6058FBD4A0D903DEBA83C3D75E249BD6CA567BC5D01313E3C4FBB3C596C28BEF30798BD843C80BBD8EA15BB3080B63D67AEC43D78CDD2BDCE2E453D9E8640BEADA317BE34A54A3E0789063C5ECC2DBC8BC9E4BD2B7D633C9F98173ECAE82E3E45C9793EB76923BE985C8DBE1CCD5C3EF3A86C3AB52223BD1F60C2BD4F0C4BBE25A0763EC82F26BEA499403EBF729ABDF01C943D9B12AEBCB3AE0F3D49451DBE0C35013DE8C081BE77040BBE87D8843C68C41ABE4A9ACA3DCCAB473B2A72D4BD540F02BCD793463B9FAC25BEA5EE2A3D20C99BBDA798203D8D9628BEE41396BD8FCD57BCF194E73B1DA67CBE63BC8B3DA88A0FBDEC7BDE3D317CF33C696A21BE02519ABC9B0413BE718DDB3D42ECB73D8D4FBDBD3817033D0658963DCD98C43CF7078F3D53B85DBCF72D91BD442448BE79270EBE125A473D8639233DB5A4CF3E8887173E11F7DBBD197CE73CAF59BCBD3EF7813D9D154F3D664804BE1F751F3EA9A0B83CC96240BE1DCC21BE049D6ABD55F08C3EF6759FBCA80E63BED7E4D9BCA9CA1E3D7FEAE83D72AA653E1742D0BDD4DD6CBD52B117BE79AAB13DF51A053EA68618BD13DC44BCA9AC89BD502917BD724DB2BDF0DA91BD0DC468BD7BA7C63C38AEF33D0773DB3DECD2EC3B8D908D3C1BEFA63D1E32ABBC5551AF3D70DFDFBD865509BC557A423D321485BDFB5D86BE72340CBE6FA46B3E10FA06BD42CF49BD8E1D693DFFAA9ABDFE91A5BE6A52963DB6C7353C6DB7923ADD1C05BE9386D4BD195B243E94A2AC3D7B138D3C7113B6BCB63AE83C4C34433DB61A00BD95CF62BD2C3C4A3ECD90D63DDCBC193C02CFB2BDD32733BE53D9CC3DB9D6D43B2ACAE6BDC5DB25BEBB27C8BD72CB25BEFC8691BD4C734C3DCD4350BE12C92A3D8708023DD461A9BA848A883A026946BEE0EBFB3CC16D51BDDB79F33D801FE5BBCC2D1E3EFF9E93BD8C9D21BE7F2EB5BEA92962BED67395BDC9B3FDBC82A0A13BC171C2BBB23F6E3E93AABBBABEB0443E3C5E683D416221BDA5A9313C293B93BC254E4ABDBC32A33D9827ABBD48A7A43DE65A44BD84FBF7BD9AC3BFBEE29178BDDD1110BE5C8F86BDADEBAC3DDD61653DF58E753EEDA140BE711E863D0CCFFFBD408D223E2351943CC98BD53DBC81FBBDCC91BD3CDF11C6BBE17EFF3CCABF88BD9629863C43EC16BD53F2883D6B9E30BE7B83903D661361BDC16EA03CB6C5123CE3840D3E294826BEBD7FC0BC86308DBDC461B9BB6551E73D0514083E3C8F5B3D07D05B3E4D89E7BDA9535CBEED881F3E0C34563EA82B86BD0EAC363D41A8FEBD9CB2523BAE94583E8F852BBE50DFA63D883A17BEEFBD493DAD38FDBD8914A1BE232D41BEC0A84C3E87BF813D3A5CA43DFCF3193EC9629B3D42300CBECC466ABE42334EBE2F82BBBCD76DB23CCC90623E2E17A8BDB1753E3E2A55053E8467013E396B3B3C6D46ED3BAE1095BC9263FC3D99D490BC1CD6B73D75C95E3DA473C23CE424E13D055F0CBD48DCA6BDB01C6B3E7BFB5ABDB6A689BDAD7EF53D4AC521BE6F993CBD70B7A9BCD4272D3DA44600BEE0F6EC3D4EE3A33D077208BEF649ED3C791E15BE020CA63D3F95363ED12B4FBED619F33C72559EBEA66D963B0D28393D925F93BC6D88673E2B05863EB8A9703BC3DF90BDA9E75E3D25D689BCD768563D7C25833CB44A77BD2B481A3EA8641ABCC006C5BCB63444BE00FD08BE8BEB2BBEEFE49DBC740BE6BC37E9993D6D57423E2312683E081BEABD70CCB63D321E9D3DEB60C9BC030636BEC73A763E8F2F4A3E06C0E3BB3A13AEBD5B7FFD3D89F2C9BDA432023EC109AA3DC572BC3B57CD553D8F9A793E316C9C3D20E1973D7B13AFB9CBDFE53BAEFA81BCE422DC3DF7DFB73DDE1E78BE360BAC3DE049C7BC0BCC08BE739A303E5B8949BE4051BC3DC12D873D8438863BC41DB7BD755E873D758402BE5C618DBD73C419BE6F63083D745201BEA9556DBB018D11BE246EACBD65ED03BB3EA5833EA919403D859E13BE656E1E3C6A7D38BD0E139ABD824D313DA8FE1BBE306509BE94B46BBB30183C3D51B2013DAF7B123EA9ADFDBDA9C65BBE7874323D87D0243E0C7236BEBAFB683DE9C54E3C5DDA52BEDF45FA3D2E110EBE54ACD63CAB2B5FBD37ACE3BD31C1023EE913F4BBCDD583BC567516BE0E86853D48F653BEBB9F85BEE7BA30BDB0084C3E4C545C3D37B51FBEBF208DBE195444BDD1D0E23DECF8D93DCFF98C3E815734BD5D81D13D9AC63ABCF6950A3D2C6F9FBA6788D53EAAB2A73DD0B855BD544394BD03EF3DBD109F063EC5900B3EB1F9A9BD584E86BC6D04FDBDE5604E3D438C05BCF1A5BDBDFAA0D9BD9C44C93D69B7CA3CEEB4A7BD0F08BBBDC8DC95BD4BE58ABD8332323E09DFC0BDF6EF423DA859F23D39342B3CEE5B923DC1D747BE5B5D4EBC6D1D953DB617A8BC4A0765BE8ACA053E52781D3DF77C933DF69C94BD70B030BD8095423E011F6A3E1EB275BCDD045CBE12A735BBE17C1A3D58FA6BBE3D2908BEC5B6C53C3E23A4BDC9F8083E48DC01BEF699DABD7C3F833C63AD35BD9E36A5BD6DF1B33E7C996EBEED8E4BBD0219E5BCAF31BBBDBE70373DA2BEB93D1D16323E0135743DD46D913D49DE12BEAA41A5BCC42E0D3E9B080FBD5683B93DE255113E144D973EC9BD1EBE2496ADBDEBE82CBCD81238BE38FABB3DB74D713EB19C943E113834BD84375EBE60FDC13D2EAF62BE4D40C23D273E04BE54D59CBD3266D83DB370A83B4C7B78BBE7571ABDC3DC1B3E822D353CBAA4313D63F19E3DCDF77C3E71CE1EBDCF59DD3DBF81303E14911ABE8206A23B86A899BD0E4891BC009F60BE5841A4BD35DE273ED3F7303C812843BED38F43BEB76B01BEC79C7A3D5D6E32BB154CDB3D91C3CB3D9118123D475AE43D0151BF3D0C5861BECEBCBC3D1DA9B93C8C65673DC603133DBCABF8BC84D62BBD9634AA3DE30807BD23490A3D79F8D93D4AD3AC3C6060E8BD"> : tensor<64x64xf32>) : tensor<64x64xf32>
  ml_program.global private mutable @_params$8(dense<0.000000e+00> : tensor<64xf32>) : tensor<64xf32>
  ml_program.global private mutable @_params$9(dense<"0x807B3BBE15A3B13DD01041BE98ED3DBE4435F7BCF926053C8F105F3E2E0129BD187D4ABD62C9783DF3581FBDD65FA3BB7FE2FDBD8BB6D0BCDDE7B53C4813183E14C1703CFDA4393C871BCD3DC5E1423E99BE10BE310172BE70290BBEB82A003CB1E153BE118C98BEB63844BD3336F0BDC73E35BC5E22613D7E842A3E0ECDA73D5BC20C3BC726AC3CA98BD33CD5B45ABD898FF1BDD21E013E1A77023E63DECE3D4C4FDC3CDFE21ABE55DBAEBC76F4473DD7A08E3D41519D3DB90FD6BC029B113E4D9C203EE483A0BD3E2C053C9CC009BB957033BD9EBC1FBE749877BC6A391C3C3EAEF4BD3DA28FBDA23A5FBEFE3AD1BE0D588D3D43EA38BE30A8033E1EE9653D816BFD3DE56A163E5CB271BDF1039EBC692206BEE1BD59BE6864E73DA8955BBE917371BDB7E99FBD421F7DBD52B59FBD4AA24BBE5C94C4BBBD67C13D597A81BEF68615BE97F99DBD25B084BCA256CD3C2D7543BD65927E3C83B5493EFAA28EBE33531DBDD05A05BDF43E80BDAA25993DEEE3843D66BA263C9154BBBDFC71A8BD9FCBF9BDFF50003EEC34B23BB4C4873CAFB0813DE5A9D3BD58E750BE0A2C1CBE30FCDF3CF88B8E3DF8054FBE347A0FBE0B62BABC5FB7803E464C313E4AF08D3E2F80DF3DB6EAE8BD2FB85CBBC14606BC44BF0BBDA31D02BDE1C0F33DF61A0A3EE92FDD3DFC9B6F3D42DCC4BBC7CCECBDE374DB3DECBBBD3D0676F6BD27AD76BE24D6743DF05D013EE8ABED3D30763FBE6C802EBD45C47B3EFF417D3D768B17BE43F2A7BBDF54703DDD07963B97C696BCAAF746BDAEBE043E506BE5BDF075EABDAAE8163E9F10ACBB235192BEAFB13B3D9760A139121C23BEE65037BE6EE3053E180A7FBC5B9AF33B1590D23D740CD13D8224433E58049BBDAF293FBB31CDB43EB33D373DC79E2FBE82E565BD8262C53C5B7059BD498AB53C156918BDC0CBDC3D8BF35D3B25471E3E16B43C3DA6302FBE030AF4BA08B3673D99B4E13DC0300B3E7B0E1D3BEC58513DDAFAF63DA7958EBE09A4783EFB6CE7BD6D2521BD558313BE0716F33DC414D73D945C0D3E2A9F7FBC9E7A483DDE735F3E5DEE653DFA25A8BC6454A83DFDC7CD3C7CFA18BE263AFB3D6D9F12BE378D633E9F51223EFC67063D82EF83BC5BE04BBD812E1D3DC84377BD5C2CBB3C82120C3E15BE57BED72E393E94C1BEBDC016613D6A36CA3DE2D10D3D58253DBD3E2F15BE38421C3ED3168ABD33BDBA3D608AD13D9D3E4A3EBBB5A43D84DEDCBDC461BE3DFE13E83D4297853D879D8EBE936E303EEA14F73D40D42CBDA492E0BAD389C23DA1E8503E83DC10BDE5271A3D1EFC05BCDB25303C0A0134BD7A2144BECF0D583DC63CC8BDB2F6D1BCBB8A05BE8853D53C7FD59A3DC48E48BE1222303EAE9B0C3E947BE9BDBB879E3E79BAC2BD3E59573E0619E6BD9D9C663CBC5B3BBE372B3E3DC5EF03BE6526EDBD52145B3E9D8200BE3DD450BD8071423EFF85763D69A200BE9805B7BDE86601BE295C3CBEBBF24B3E7BE0313E931421BE3FAACFBCFD2FF3BC8E5FDB3C1F6C803D6A085EBDD19948BAA374EBBC0CA0923C5A1FB1BD074CB4BDBB5E6F3DF016143CE484EE3CF8216DBE791099BCBCC657BC589C9E3E7BD0283E43315CBD41588EBC514EF4BD5A138BBC606844BD9051DEBD460F9ABEB0C8AD3D1F31503DB3D38A3D43603DBDB238A8BE19FCC3BCBBEEDDBD7C14033EFE6B8DBD1B1DD0BC7A9834BE1168F7BC324DABBDBB90213D0EE521BEE1A58F3DD259903D2D052C3E8F0D1DBEBB0A8ABDA11988BDCB0E453E86AEC43D245D283D0CAF06BD23525BBE2AADC1BD435793BDE1C744BEEEA71ABCF652E93D202127BE567097BB9D7E143D32A510BE099A243EFB3A283EFDEB97BD5D20163D14F85B3ECD39053E1F54BABD8FBD68BED04E0C3D33C336BE5222113E29C9383D730151BED44B063D0E37D63D27451CBD50F110BE25731F3E125791BE733598BD8549B13DE6E4ECBB74C457BE50BE9B3D08C642BE7DA51E3E051FCE3DDCAC833DEFF42DBB463DDB3D822F053E1148323E3BAA99BA697EAD3D731D373E4A98963CB86A46BE73F080BEFB6F4A3E37023D3DEEE5893D0746C13CE3BFEDBD6F2182BC93AB4CBCE1644CBE89A452BB1A5A13BECD5599BD3E8A633D25EB03BD3155F0BBF677323DD1F337BD044982BD39247A3D90C4493E8449BCBD1C528D3E2A9811BEEDE4E63CA723C53B421FEDBD384B0F3DB18BE23BC3E010BB762E913D2D1746BE532CA13EA4ADEC3C31BD973D7B1ADDBC61FD073A3298BDBC0A72013D27905A3E4BD55D3DF3A7E23D7D4502BED7FB23BE577055BD031BB83C8CA35E3C3827DCBC1D3580BDC3D801BC81BBF9BDB75DB63D619C16BD7888173E8C1F273EE3ACD63C1BDB9B3D54DD703E8BF5A93AF937CCBD72274A3E9C11E3BD81F1843D8616113EF79F983DE806A03E42627DBEFE40F93CAB4A89BD1BB6183E69072FBE90AD2EBDB2691D3E95C67ABDC4142D3E4E1D6BBC997B563DAE6233BE4DA5BFBB3A5B3CBEBEE340BDBD27D23D7EF6543CF2AEB2BC09DA02BE0651203E0E4A32BD80CA58BDF6EEA63B720CE43D583A9DBDE5F9B03D384F84BB2811723C9119A93D9B7439BE68D7DF3CB66233B9AE15F73CEE65413DF36B0B3DC9538A3EB044A43EFA35923DCADC1BBD49A2083EC51EBF3D51B3ECBD3B5C1ABDFB771BBE449BEA3C1FE33CBE4F4E2E3EE7223ABD2B2834BE3DCBBF3D070243BC3F9FC5BD60FBCF3D19B4D53DD055053DF948213E46BAF6BB0F7682BD477021BE057E983D80A3233E88C7D03D155B5BBD74D4083E5F3CBD3D58407D3D2C20B43D251519BD5FFBAA3E968A023E7DC5EBBD6033043ED8D090BE137817BEFF3823BD4F8CBDBDEC514B3DF0300A3E444E093D49E24B3E66E664BD2FFC2ABE68835D3D46A459BD146635BEAB5409BD130E19BE51104D3D147C9F3CC88E7E3D5EC86ABEB0B70E3EBA71863D813195BD77C794BD5A1A393E415EF43D9FF4A83D54B425BEF4988DBE852D4F3E04566EBDB0A0EB3DF358EEBB3B9FDBBDF9A85CBE1359AB3D9EAEA3BD2DF248BD133217BE2C18CEBC1395023EE6A9D33CECF6343EF5703C3EED1ED13DA1732FBE1335363ED06F2A3E3F83C8BD98887FBC28EA3FBBE9C25ABD6B37533E3A7CBABC1FE3D33CFF05223E302D6D3D1C638B3CE7149EBDB0134BBE226D083D705CC6BD66A495BD1D4FD7BD6BE6D33C680F533BBD5C88BE006E1DBD15CE813EF4C9A33DFD0B62BDB4B452BEA8FC5EBB3DE7AF3C26E2B13DBA41073E2CB6F73D929C40BE04EC85BD15889DBDEA43313D42ACE73CC1C7223D67611B3DE9B4913BF76B25BE52AAE4BDED966D3E543B8ABD08E81D3EA035B8BB205EA0BCFD2053BE9F375BBCE3BCA8BD0B0D6D3D2359BFBD5664323EEAE8363C000980BDE865C7BCD07F253EBA38F73CA72D9ABDFA04C7BD2338403EE1312BBEC97AD23C554F65BE8E68363E33730DBCC1AD97BD8C5FFCBD96D6FA3C0A6DA5BD735B893D4422FA3C5D94383D90E60A3E130E8D3D820EA0BD2EA48B3C739281BE1658C43E2F12553E98CBA7BC21B424BEFB79C3BD1D0230BE144B44BDB20211BEDE9F2A3C3F4ADC3A5A4A6ABB741098BDF2094DBD93F7563E35F25DBE9CC190BDD17165BE7430143E3B0FD4BCAF8B50BEA06B5D3DAD71573E03F935BEF6A018BEDE62003D3C0B8A3E57B2E03DDD8F8C3CD323ED3B5C4C443DDC5725BEC804D1BA89D4EE3DC8CB48BE29F808BED2D375BD9C58CBBC3293033B9664E6BD713191BD85B4C23DD8E291BD3342013E25DE21BE295FB23D266C023E210379BD2B8DA4BD67A963BDC9E3E33DFEF54E3E0694893B1576B73DE0774C3D3D97DBBC00699CBE471D6CBD28E2D7BDC8C030BE6673A7BD14C027BE9DB7C9BDF80B0BBED656CDBDCDCAF13DBDD5C93DF6EA20BE82E8553DF4924CBED7DC253D77F5F13A8E97773D9EB2FB3D86250D3E19F4C03DD0547D3D444A113EBB7515BEDFE1C43D9A4210BEA76CA5BDE2649B3DEC938C3D5A587EBD2124DCBD505F8ABDB04AF23C47880E3D929D3FBE386335BD4483FB3DD097033E2CF312BEA25B46BE3116333D7168A2BDABF8B93D02EC423DD1002EBE18747B3ED9E02DBE1284403E1E93673D4F1880BD8B1C253EFDAFC93D0A8BF33D6416DCBDC4A029BE88F0C93B9789EDBDEB80C73D97F1A5BC4EC1903D1A1DA63D123D01BE4A54C4BD24E8B3BDB5695B3DF1153D3DF82B863D83107E3C75BA07BE6B9E8A3E670349BE2A405CBD2511B5BC6B93E6BD21C868BC5AFB75BD4FF80F3E44A221BD9196D0BCBD867C3D142D2FBD025414BE1EBC6A3D7DB3FD3DE7514F3E52EC7CBEBD8BE03C1BE9AC3B190691BEBE1D993E402890BDDAECECBD4791AF3DDFD85BBCB7FB983D2BD581BDAAB813BE6BDC053EDED928BE61FF593DAFDB97BDE662C7BD6114183E5B6262BD3EC0003DCD50313EFFC3903DD60F96BDD4F00A3DB26EED3D6B34323E1A4C4EBE0599AEBDC2BB523DFFC1193E28F8023EE0073E3C8063083E9CEE79BDCBD1B7BD6954ECBD6B4AA53DE616A7BE110EB53D607A5ABED948383EDA4CF0BC45B5D6BD65B68EBBF17BF0BD9D3E1F3EBBB3043EC20D97BB968A893DD5FA76BC76B590BD62FE463E414F7DBD8A837C3EC01133BE1A53423EF6B1CFBD1EE8F1BCA676613E7F1DC83DDD9F99BDBC689C3CC3877B3C57FBD9BD9BC3FDBD3296313EAE7013BE61A30A3E02E219BE13FB883D0986B3BD877F53BD0EDB283D8EB0883D8B09C33DD5E84FBEB93C94BD818740BDB50D5ABE68443F3EEB782BBE7C46413D6B8A71BE4F5FB8BDE2BC3FBD5273F33CEBABD9BC45D45DBCE013083DDBBAFA3DB06C88BE96F6343E902CA2BD194600BD8B77C7BC9E707EBDC3B5B03DDA0B9EBBCAD998BE0C398DBDBC3E183D1ABEFA3CA5550E3E76118B3D698855BE984F493DC39DBBBD69C73ABD2B0E553A8F63FDBC8D936CBEB3FA02BDB7ADA63B365230BC08F518BE6B89C9BD3D51693EFD136BBC5E2736BDBDDE8C3D31DBAA3D113E0FBEB2C70CBE57DAA5BD7BA91EBE3E9092BD60EC893E28D8303D18AF01BD673057BE5D98C13D38F2873E254E513DC5A5693DD023E43949CED03DE559913E2768C6BD6268093EA77B75BEE1C4463E86271DBE83D672BE6EF52FBE789F093E01C660BD67B87D3DDD5EA83C1CD8BFBD2CE1883D1DD2603D946C533D495A663ECA1A183A52D0A43D97B8CBBD06E79DBD0397933DE39C9F3D15BBBFBDCC89C13D9D6D8F3EE0DC7B3D9889953E2F960F3EF7E2843D3F9C4D3D66EFC3BD90D7D3BBCD13F6BDD17A793DE04764BD39582CBE42EA05BE04701EBDA97C5DBD2547013D6D94C8BC4E7954BDF3D7F7BD6E53853D7180E83D137B043D4C0959BE9E65A4BDD29FD2BDC2AF12BED18E7CBEE31248BDFF7A4C3D9454DF3C773D03BE436802BDC7B1C63DDDD7D8BDB19102BE0C14EBBDB33E71BC880AB83CCEC8EC3D08E9203D3F04BA3CAD83F53DEF2CEBBDCDC04E3C266002BDD677C33C9461B9BCFD466FBEFA1E8BBE5002343E6D7E233EA0638D3DF3600FBE127F61BED686E7BD0F7CED3D75B304BEC2EEBDBDBB26A03DF3A2CE3CCF5A5FBEE706783EEAE7CC3D31EB80BE365028BE5BA5F9BD1859F63D8A31043E2A69BFBDE31905BE0179C4BD7AB85DBD8C38833DA4B03B3ED86617BE5C3C003E5D21D53DD8EEC3BD03F294BD4182333EFE14923DB4AE0CBD3D33133A289D0A3DEF67ED3D03A9E5BD0139C2BDBC974C3E319B833DCE86153D2A84CA3B27A07E3DB5C4FBBD734A853DD1C8A03CDF2F973E99A8EE3D1290363CD6F080BD07AF69BA1A71243E7F9BE13C7603EF3B467B5BBE6969A33D3267D13C8FAC053DC822043E98CB3F3EEDEB333D97397D3DDF0051BB4AE252BEC7623ABC460F04BEACE200BD7267003E93D626BDB16A4B3D519283BC3C96283DEEA51ABDA50126BD62A206BEDB37893D40C26BBC26B00BBE2142583E43B9603D0A09973D7356463E7685E93DB5FA36BDA9903DBDE7BC3E3D9AF1A1BEEF68883C211701BEC898473E78828E3D0173483E467C203D56E3CD3DD4D3893E01045FBD0D3B38B78939663E09AEDD3D19DBDCBD9A93E43D3D2E48BEC48CC13DC3E040BE0DB6713ED4F7853DFF29E5BDFE76EABDAB2EE6BD888BE53D11354E3D88FEF13C3536CABC868C67BDF40270BEEAC38B3E0F4EA5BD9EA5B1BD68C10BBDC6E8F93DA51319BC67A3CFBD042013BE868AF83D727E883C2E5E4CBE453C4ABDD45E823DB5172CBE1CCB3FBE43002BBE80FC0B3EACB3BDBD25622F3E3B25B9BD425466BD06DB3ABE8ABE0FBE399BCBBDAE8ED03B4A79CCBD9A09B23D06EC3A3D1692313D988192BDB8719B3DB5E5CBBB1F2E6A3CD027C2BD89046C3D6670253E6280333E21F8DF3D04B9A13DA1898D3D3F48D2BD6D40FE3C424A5DBE4E21193E231DC53D5CF0C4BBCE1F40BD51358D3CB9E08ABDEF2429BE0806823DF66F2B3E52A53F3E53DD463E19CCFDBDEC7FA2BC5478653EE860B63D392EF6BDCD98A4BB57A4E13D4E6407BE6A8182BE0A64573E29F9B4BB5532D23CC5DD1ABEB3B4913E6BC44EBE6F1038BC189D92BD6516143D5A564C3EEDB1323EDDD8BC3C3CCEBFBD044B02BE7BACC8BD17E38A3EBE6BC43DF8E748BC23893D3D647CE9BDB1BD6E3EA2BE893DEE2FD1BD70239F3DF1A7B3BD720D313E35C776BD05AE91BD298BC43C1586203E9EED2DBDC7395E3C7D2E103E4331343EDD6EFABD1AA6843E1656F5BAE021513E7E6B12BDAFD72A3E50438DBE5A9DF03D1505A13D18D9B23DC9EF93BCD7CE88BC94ACE3BDC93E9F3DE9CAA73CDE65DBBC3081AB3BCB3B533D4751EC3C1D97443ECDF668BC774A253E3879FD3D2D224E3D22B09DBDD50FD9BC0C49763DEA23C83DB43478BD2940053EF976553EA6D44FBE21450EBEB578E6BBE531913B701C23BC184EA3BDEDD74DBB3E4F7F3DEBF1BE3DE7E922BEF90A043E7717833D4A1325BC742E00BE026D263D1951443EB7DF47BD38356FBD71571BBE5FBBB7BD51D042BC22D6E9BD2B1DA9BECC0D46BE04202FBB8037B8BCAF5BB9BD92831ABC05DFB2BD4E009EBCF547ADBDD3452CBE3BF8F03BF94496BD6C2D1BBED767D33D9D3AC4BD3512D13D09456B3E10C570BE02EBB3BC49BFE6BD4BB4813C6216EEBD5DBCC9BD99190F3DFA59393EA01A0D3E0267883D4903383D079B42BEE517F53D7ABC5B3EEAA6AA3C1FC7E5BD54B5C4BDD9CAECBDF29D043E790B8C3C9AB98F3CFAFAA73CD977A03E58A17BBE073B0B3C7A75D6BD60D6B2BD35EB55BD3A057A3D39692D3E580F283E92BA5C3DBFAF303E2B5C6D3E1529BCBD4FDB183C87A3A6BD86AF0D3E93F59CBC18FD373E0C5A41BE120260BD44ADF43D23453BBCADA635BD6475823D44DFDABD3ABE07BE802F81BEFB440EBED7162ABC97F84BBE1ACA4BBDFAD991BDEDB3263E1FB987BC8B00453EEFD9ACBD348433BD501E04BCA77A78BE5750A6BC00675D3BF9A2B9BD8C599C3D67CB31BED6B114BB592899BE9EE5FDBCBEFBA6BD6671C43D6BE70F3E0AB6A5BE184FA73DB899F2BD58F5ABBA908B4CBE012A92BDB75A623DEEC0CB3C68E61C3E674EBD3D177661BCD0DF843D50F6A33CA71316BD08A5983D8D7FD63D6707033EFD24393D202AC9BD4C15983C5FBD04BE8A07BF3CD845E9BD0A6E823C58656F3E566922BE7E6342BD062A95BD969BAB3DEFA623BDDA8B393E4F9783BEC11DA7B9008DB5BD02ED073EA2C1403DAA31A13D02847BBDFE9A80BDA23F723E36C21CBD74E364BE63C910BE042D90BD49CFBB3D429D57BE9734153CCB2688BEFC9E5A3EB9D56F3E11EAA3BD3465833D14A2C3BD3CC5863D38AA6DBD8644993D5B9019BE23F372BDF602163D602378BDAF49F6BDBDB0F53D1C1580BEDCA3E0BD361F29BEC14EAE3D7170383D4BC4D9BDBFC4B93DA8DF483E1E418E3D3C49073D06FB37BC80FD213DB914BC3DE68D6C3CBE2A56BD736E6F3E3F2A5A3D3207D4BB8C5325BE1A9C313EE2BD92BDA5783CBDAA3980BD73E249BE2D3365BCD97E643E8279273EEF2B443D169F643D4F73B53D255BEFBBEE35D23D88482CBE886AA03D50A5853B56D8C4BD39D9513DFBD5C9BDBAA813BD262094BD6A6C673E0BD45CBED4247D3DEC6D2FBECD2386BC9D57633E9C76143DC1722D3EE71F9EBDAABDB83DFF2F593EDA2549BEFB3CBA3E9BB597BCD8F558BD8C38EB3B33F62BBE5AF4623DDD5B88BC24620ABE12C1A83C275DCEBD898DA2BD8E80383E4BF5B0BD16594D3C48E5753CB0C8583E5D7F293E36F9913D59FAA03EA35E363DC0C9B93C8E90793B0E09D2BAB16922BC7CF5D13C85DDA5BAA812193E453EFE3AAD5BA1BC5B904E3DEF31203DBA269F3DF5424DBD0CFB473EBA3F87BD51CB88BD2EFF28BE114A573E6383903D329E27BE85C65FBE3CD349BEAC9E8BBD6DB23FBE12167A3DE3A80F3EAA6BD63CFAAD2D3EABAF67BEB09ECFBB96C263BD0B0CA0BC4ED70EBDBBB9F93B73462BBE315A213DD08295BD1E43B23D09E2843D82610F3E662CC3BD345939BE7491E93CC32821BE382384BE4024F63D537DFF3D81B417BE1BB5F33D7E47FF3DCFF43B3CC0FB4EBE515F72BD960FD2BD900F053DFA6970BEE9430CBD65DD69BCB48AFDBDF2B8EABDD4F8743EB252173D5EFEB03DC7A775BDA602CDBB8BDE313DCE4CD93CDAC0A5BBA587BFBCB3987EBDD6AAA13DBAF111BE7759B8BD849F883E6B78C83C9B82493DC6710EBDD92B07BDA3C2D5BB483770BD4F9830BE0087273EB5F96CBE4982713E7F06023EB1CB13BEE71B2C3E4AD2383E9750843E69BF0C3EFA8A5A3E72961A3EB0CA613CED1627BD96E6F53D2503FB3BE6EADABDFEB62FBD7B7B0DBE9F0210BE27BB193E627F2ABD0BF7283DC8E54D3BB6F207BEC3A0A33DCBEB1B3D44512C3E0897913DA9BC72BC2A0A1CBEA2F18DBE49EF0C3CB8FE6DBE57FD63BEF564033C45131C3D3F1EFBBC3316413C8015B6BDCD638CBC261D4DBEB501EEBC0ADBD8BD34C109BEC67E203EB233033E26333FBDE377523E8B1694BDB2961BBE158A7ABCA7372D3D4CEE6F3DD2667A3C975ACFBD946E6FBB63A7A5BCF1AF9DBD80311D3DCC708B3C8CAF293A12495E3EC034C8BD33102CBD7ABF9DBD3A898FBC8761863D34F59EBD450D0B3E2FA8B33D307943BA7226D93C7148E23D578908BE0386493E7E6A0DBDE81AF93B8EE39DBDC9A23BBE05873ABE9941B5BCF5F008BE05B300BE7631F5BD7DB90A3E53ECEDBD5EF641BE10F45DBD656FB53BF2081A3DD2DB1ABE4EA740BD82FB53BE5C56803D0B172B3C16803CBD0AE9E43D4BA03F3A48ACEBBD2666073E6005913E78B427BD0CD70B3EFF2AE7BDA7E387BEFE1A3B3E46B6403D705ADD3D4DB155BDD62201BEB65B59BE374C6E3E564A003D1034423E6B5DFB3DC2A30BBE0FA28A3ECA20E6BDB1DF9A3D0E9F313D525D413D8B7BC23CD622853DC7B60ABE6448DFBCB1B89C3C51509C3D0B964D3E62EC103EDF25783EC102AE3DB45B7D3D97D62E3BD101FE3DC02D12BD02EC3C3E1B1FC73D504E8BBD61782A3E9274DCBD1E8B03BEA651B03D34FD0ABEF01BC63BA3A5203E0B7D1D3D137917BE240595BD7842A73DE82125BC56A6B93D1AE6A5BD75569CBDCA9156BE24610BBEB4D6013DA2601BBE2372A33C4CBB953E7D3479BE6943AE3DD5E920BE0FC08D3D0F9584BE333836BD20A92DBDEA93FCBBF9DB313EAF0DA3BC48A844BDCAEF7DBE93B6D0BD4237B73D6EDDE8BD1D2F75BDE3523DBD21FB16BE67F65FBEEC85DABCD360C1BDCD691ABED915A03BCD29363EF591933D6815893BCD897D3D98DADBBBF387543EA8CB243E9E0D2C3E9B20843DC2DB523DB001ED3D0D8391BD79DA33BDE5D5C53D855FDBBD16936D3DEB36BA3BCD34253DE979023D64CE4FBE3260FDBDAD858A3E83DB25BE98A84EBDDCCABB3E50622CBE7113F0BC337934BD70E52ABD9EFF1ABE8E00303D5CB214BB3450A1BD2BD96D3C884176BD54800FBD858618BEB5953E3DA04AD03B4FFC45BC28CA9BBC7A32DE3DFABB2E3E168E22BCD7C35BBC470D4C3EF25671BC7854713D93218FBC04C7FE3CC1C355BE10E9B63C057350BD4AA6243D526A55BB5331AE3D61763FBEE02384BDFD4A443EB44C63BEB40987BE536F153EE4752CBE4A3C073EE15C343E58AB87BA465D09BE351CCA3D111353BD962B07BCFB0F273D2405163EEF429BBDE5F371BD48D9693E5A73003EEC032A3D9734A93DACE154BC43B18ABE0F6AF93C03155E3CF1AB68BEEC9276BEDAECB5BD8F96063E72CF39BD377E9A3E75B9223DCF4B48BC280D51BE1066AD3D4D818C3C51648D3DF27DC3BD7B7761BEEE72913C3BDCB2BD15FC8F3D799C48BE9C9108BDBCF27DBE66A1193EF00E2F3E15F758BAD75388BE3BBC10BE5CBA5A3D625FC1BCAD11F4BDBF20A1BC4992A9BD5851B63AD4BF0FBD8ABE5BBDCAD1533DC1FB1F3BFC26AE3D572702BE5D2B48BCFD15C23CAC539B3E8F0606BD1CE8A0BDD01978BD183DDE3D040D473D65F2E3BD63E606BE0F0983BD48301B3D368BB8BD98263EBD83B02DBE4050143D3FBA2F3D4D01F7BC10CE3E3EA17239BD110E58BE2269853E9FCB2DBE726C5F3E103B1BBCD2D252BDF88E7EBC23AF9DBDBE9A7A3D976731BD12E1BFBB18A9F23DBCBBD23DEC0A1CBEFA44063E0B9F46BD8F6D58BE5106AB3DCDE0CB3D45F63E3EC11129BC81382F3DAA0046BD5F283DBE213D99BDAB04DE3DB8C13FBE608A66BD36066FBCC62F18BE4CD31BBEE582D23DA3AC9D3DC918D23DDF3D733E094A97BEC01971BC1A28753EF2B2EEBC51BCDDBDCCF89ABCEED3F93C730CAF3D8167B43D2E5AE2BD40AB0DBD706BBEBD0510B43DC68361BD08405EBE132631BDD6144ABE49F7433CF0269D3D0CF004BE0CCCB23C972D12BEB9DD0A3C383E103DADE6DFBDBC4D033E835B2BBDD3966D3D07FC20BDE10AC93C9BB1253E9D34343C801ACEBE94BC1EBE97A487BDAB720BBEE1C6D3BD35305A3E2776ABBDA7D6C4BC6077A3BE703AB2BC2FC1DDBBCB419C3CAA9499BD723531BDD5FE63BD460703BDAC21E2BD2D87743D68D18EBDC841AC3D9F74B6BE68205E3DF6BCBB3DBD1F1E3E9851EABCA2B1973DB38840BD1ECE40BC3AB3A9BDFD9CEA3D31EF003D814A0DBE89E9823DFF2E2E3E04523D3E6A6E933DDF33D73CD9892B3DA20EF0BDF518893E449FFA3D0BE2E1BDACE72FBEE54BE7BBBADD4BBE2A75D63D19C0B73C3203583DCCD8B33DAB582BBBC5D5AF3D7F77FABD62E596BDAFF48CBD8C999EBDB8145EBE082F44BD886138BCA8A789BDEB4A6E3E8E811C3CC61129BEEE5C18BE13F48DBD10BCBEBDC9C6363DC82967BEB3E3B3BCC4B720BCD6D4323D60BE713EF50AD93D1B0B8C3D8046B1BD323CFF3D6C4D5B3E68F4EABD22B62DBD00317BBEBF80183D99FA92BC9302383EAEE124BE618A2FBDB262773D9BE1783CBB3A13BE92D2C7BC7D36A63E3951D23DD5C0AA3DE6C4553DA80D44BE8A9857BE24BAA2BDCDF5C2BDD481843D89591CBD49EF573E63FAD2BD6538023EE325E33CDEA657B9E5C197BD681B6D3CE2B530BE3C10DDBC336D9D3D6C4C3C3EFA6253BDF00753BE202E89BDE11BAE3D2BBFF9BB304A90BD72060ABD74E3FABD1AE9D93D0BF4C0BDB401A5BE61EA8B3D865EDD3D2AA9B63D7E66DEBD3B020ABD02EF433EB696FABD6C78113EA11C553D763D8E3DB7160FBE4E5C9B3D831A2BBD73014F3DA0D20C3E22418B3C96F7A8BCB3785BBEE7AC353D169D3ABE32C4BFBD2657E4BD344C93BD9A509B3D21A4B6BC4B263ABE8345963D284A793E0BA1293DDAE51CBD687D13BD1A6D93B89F66973E7F5F1CBD88CB86BD60D984BE443CC2BDA14AC63D6969C53DC985E13D0F9ACA3C83C22A3E902D193B47AC893DD41F2ABE8299443EFBDD993D98DE573DA4C6783E52E4553D6FE5B33DB7B767BE5A2FCD3C0A17393D66C4463EC01B293DD38EB8BD3936643D9B0AE4BC4AE1E03DE7FF8ABDB6D1B7BD20DD4A3D393A8C3E1000C73DF15031BDF47E083DAD0D08BE41DA3BBD077D0D3EB1984C3DEDA3383E921BC93DE6921E3EB5E780BDD21306BE27702A3D8E44B1BDEEB39FBC326539BD3511243EAC36A83D2204A2BD78CC74BE857ABCBCC2A9B83C901EAEBC7A7B913E8398783D74C1983DDD4E22BDAA4D193E6C0629BEF2F904BEDD534BBED4DF6ABDCBF0DA3D5CAC25BEEC56B9BDAEE38A3D7CD4D2BD112C51BE97954ABEA4F8933DACA8763DBD14F13B308DC23E18C5413D1C12033E6F3A86BCE4C30CBEDE257F3DC21753BD9AEF55BDB894053E94ECEFBDCC8A6ABEA7D045BDB046BEBD66846B3DEC52CF3BF531BBB9C02D87BD2B21EBBD42C3C63DE237923D5E7033BC83FB07BD7B5EA33E8E61D7BDD11FD0BEC9AD133C847B5ABD0B0F813D95A5263EC0B603BD10FC0E3E8D87B7BC53999FBADB6B783CC9CF07BD2A7E2F3DA32B9D3C29EE823CF5B0F13C5A41E0BDBD95D33D71FF94BEB312813C3E411D3E457D85BD8F13863D6BF18B3C57ECA13C6B01C53DBFE156BDB2978CBD0260413D8A12483EF771733C91D15BBCA7C6B73DE04D0E3E83E405BED22A1D3DBFBE463C449A86BE373FF2BD02DAA73C21A4863D46A598BDC19D3B3EEF7BE93CEAB815BE6A20253D80D02CBEBFC32A3D0A6E393DB403E7BD6A96EDBDAE42EB3D154B193EA9C312BE6F8BF8BC1D2AEB3D6136CBBDC3A739BDF2A549BE12B88FBED835BEBDDFA5E53C32B94FBDD7D4A63C64829BBDD6B00B3D2D2E263D4CDC87BC5392A1BD7DFF353EB684003D2F13D13D88ED31BE1FD20EBE77044B3E69AA3F3EF6ED9E3DADEECCBDB4E677394202AF3D5FF7A03DBFF4E93D82EBA03D99AB1E3DCB21313E7F1FF13DCD99073D3CCA3FBE72692E3EDC39A5BE722EEC3DDF9F1D3D209837BDF12CE6BDB1D7A2BC592447BDE83583BD304D413DD9448CBC92FBED3D0A48EB3BB0CFA4BEC71FB7BD3E11CFBD5CD3A6BD1AA7BEBD228817BD593B03BEA3D5683E32FE013E828F6B3E22732A3EA007D5BCAC279E3D49851EBDBA6BF1BC77D97ABEAEC48E3EDDFF85BDEDF7953BD0C4A4BB51B0903A791631BE2CA2F2BD0C06EB3B0FBAEBBC18FC583E1014C63D6862F1BCB381DBBB274683BE8196DDBD420986BBBCF0243EB1C949BE9221503D09EF0D3E054C54BC725F7E3E0E8865BEEDC0E73DAD3474BE02E22CBE26C019BE3E7C603DBBBBFA3DE136343EF18CADBD2C2C6FBDD8559EBD3F788FBD9A610EBE742A7FBCE7A2E33DB0D6C7BC25BE9D3DDD65303D2EEC5FBE991D6EBDA2D4313E146B9B3DD550A93D68B1CABCEEEC7E3EF98E2ABB9709273D7CE95DBDC01398BCDA788E3D0F72753E8255C3BDE23386BD2DB90FBD5BCC5C3D703C99BE9076203E95FCF1BDB9F0E5BD3D2002BD273171BDD9F12DBBD55EE03DE8CE59BCA2AF413DBCD7183DDC9A12BE192AA13D333F323D24BD973DDB0591BEA8B5AFBD2519F0BD710114BEC278823C1B22B3BD357D193E3AC1FCBCE5DB5A3D1808EFBD18D230BD1280D2BD5259EA3DE7AF9CBDEC5582BD43DB2FBE310A35BE79A65ABEB98D3A3E7A852ABDA222203EA0BAB7BC5A4C5D3DC81EFE3D3C38C33D5068B43DBBF1313D7A0E483DA72D173E9350223EFC081B3D0468883EF281B4BD063CFABD8AB4F3BD0D7D293C87DB7EBDFEF2B9BD3AF305BE6FFE6ABE7D9ACE3CEEA90ABEC66211BCC607F43DAB69123B3A69F6BD6CAC68BE2CAA083EDBBE4EBE14F29C3DE5B1CA3D35D812BBD22BA23B559927BD5250223B8A75EF3D43232FBE9FFF03BE52A2CD3D9A34E33BCE37793E910E053E512DC1BD9C57133E3BBB293D6B61E83D75179F3D69114FBED982053E5E14C5BCDD70CEBDCFE5D7BC8A75CE3D3CD44C3D3CB15A3DACB62ABE865D98BD072035BEEBE10CBD4B3DCD3C38E98B3E57A7CB3B721307BE03C7113E201D18BE8351093DBBC54E3EADC5F4BD1D71CEBCDD4F383D64F0A0BE6DC32C3DA59C3EBD76EA473E9C06423EE0ABEB3D6C9D8CBD682B083D99AFE8BDA242A33E3893C0BD13732BBE2D0326BC457674BC16A17DBDA8C9583D9DAB043E030345BEA675763D91D6A03C97D520BEBAB847BEF71986BC454C373DF1DD8C3DA201F53D79F532BDC35D20BDEA758E3DBAF6B83DB33213BEEAA0F13D2C1D5FBE0E506A3DE050A5BDD558013E94B8A2BD4757B93DC4C0233EFC0F203EB3B5073D0D52353DF7F3553CE12C463D62602F3D81F57C3CAA845D3CE05B723E195B223D1862883DE3BB33BB1FD327BDC599B0BC1C808EBDE30BD2BC32CF863DB283F8BB2EE7F3BDBB183E3E673F993D3046EDBC56CAB2BEC50DAB3DE6E80A3EF9EDB73DBE0207BE0D4E80BE994FDABDA76AFA3DEFCDE23D7234763DB988FC3C32C328BD05F3703E87C1EFBDAA6593BDCD80553D8038883D84F3E0BD865595BE9A1D61BD00CA193D44B54DBD8F2590BE035DF03D6646163CFF6323BE348DC6BDDE4C9E3D8CEE0D3C293CEA3D9A5B64BE90A788BDB5DEDC3C3DF7E1BC7A4E74BED4DBCEBA7CE4EEBDE01AED3DBD232E3D9BB1C53DA25B63BE6C86F8BCDB9EF13D67C56ABE76EC463DE1442D3D00B063BDD19D91BD74634CBE857043BE86C541BE6DCB143CF1CA7ABED0692A3DD6EEB03EB394693D0219DBBDB1A9B03E674F873DA61775BB3829053EB80B3C3E374057BDF58117BE5DF2EF3D4EB40BBDFD19293E07C6943B767F7ABD12C2EE3C299D963D2510CEBD8142D6BD879C153D6F48163E3FDFCABC74CFB6BDF644E9BA102F12BEA2E4843EE35A863C9DAE183A3AF9623C64A9C3BD0F33BA3C41E51D3EA10516BD53151C3ED12E07BE9378B1BD1F8D973D3776933BE9C6723E738BFD3CEA1CC2BD6FD692BD92A8343E843FCCBC3179C9BD718B8C3D761886BD8B05B33CC40DAF3D4DD056BD5B9A803A9DA4F53CFA99333D1C52503E175BD83DFD45613E48F850BE7A6A44BE56E8DDBDBF92E03DACCDF43AE302D9BDF86CE6BB68ADD0BDC14DD0BDB320163E66AEB93D129954BC4EB09FBD4D6D093E657810BE2790893D0CC6843D21AD8A3BC0DC5F3E9EAA22BEAB30943CE308ED3D76149CBE95D6E43C25F296BDEE7D433CB1FD8C3E1A2AFB3C93A2B03DF6B5213E70D1DFBDAB1F3C3DB46B13BEB131D33D160607BDD5F1CA3C5A906ABADF46B5BDF1D28CBE64D3DCBDF7EE89BC73A2DD3D6A0C953CB96BFABD2198213E85892DBDC9E02BBE1BDC53BD63CD313EA2E4D3BD68F6DFBCFA58D4BD4F2EF53CB93F4DBE5D4858BE36D1F3BBBAD7743DDE77EFBD22E22FBDDCD8BA3DF4D80EBD58D8B5BDB310A2BE5ABB84BD2AC1FF3D43AD1FBE5B71393EE6754E3EA5FDBF3C59F540BE1A11B43D9E07ADBEEB4F133C5393F23D23B0A8BDAFFB8BBD13CB063E745F133EDB43663D0E6A453EC20D74BDDA0137BD3C5CE8BA02ACFCB9AE8AC83CBD4817BD4BD01BBEE2DE6A3E6340F0BD201B0DBEF7F56DBE4A90E8BD39240E3E55F31DBE1E4A483CA7CA7CBD638EF23D98E851BD276E843D7C4D303EC72A1A3D5E63D6BBF4EFCDBD06DAE4BC5E0B90BE940F30BE9B458CBDCA0B023CBB1C203DECE93E3D5565D2BC6C8CB33D2F654A39C543A23D0E9EBE3D0BBC003D8BBC42BBCBBAB03D1CAC08BED8E61EBEECA7DC3DB112AEBD2B3CB73C7E6B7C3D40D4B8BD6D66F23D21DBB03DA66F87BEF80038BDCA5D813E056A2C3DB249A43D3E59CD3C65E01D3EA52087BC0F96143BD18826BE8727563D6C2505BD2601943E055B19BC9D7B7C3D5DAF85BDC51C453E8C6ABD3D95CEAA3D956F3E3E641B8E3C5B5123BC649F0ABEFADEBBBD5781C8BD580B113E0F73D73C99152D3D7B2ED0BBC63306BE942A80BD696AF9399A42073D04B9B43EBD793F3D99B00EBD537D9F3E1BF16DBD43004EBE1176B1BD796E533EF6369EBD4E0F1C3C14A9C2BCC5382EBD160B05BD6135783DCCC4E63CC8A036BE0CC61EBD7F641ABE2860FC3CCC742A3E4F6A6A3E98D78B3945A798BCB2497B3D4F12803D4830F63CBC3D2CBEAD1FEA3D065286BE550384BD3FEE44BDB7C5633E8CDA593CA0E17E3C23AA80BDD4EAA8BDB305563E909D07BE2D8BC5BD52FE9CBCB8B1CEBD55F8383D7D13D0BD15C11FBE28D47C3D0327E8BDA7F5C93D9AD5B8BD6E1D0F3E8BB413BE7162953D6F6D20BDA5AA6C3D25C7AD3D10ACBA3CDD0F40BD7FB6C0BC5E5E79BDFD86B63D5E5E3CBD98668DBEAC32F3BD6CE0E2BD47F2803D18017A3C7A32683E86447CBE22BC58BD01320A3EC215183E6C560CBD85C98CBD9E46B8B7EB2E48BD7352333C76A780BDD0FB68BED7DA193D2466CC3DD80C5DBEB9B986BE97067EBD6F05353E2805733C27ED923D0779973D3642D2BD4D8884BEEFA6ADBDD74EA8BDF6683ABED6A6A43DAECFD13D5D92FC3886A15D3D9E5E61BDEC1CD23C37F40A3D4AA93A3D5775003CF6AB013EF0AB23BE98B02BBC63E0B43CA3BC0EBEB5331EBBC1D46B3D8C01483E75CE47BE03F26DBCA7199A3DDEE9043EE386353E3590913CE7F9383DB2418FBD9BCAD63D244BA33DD2F9663CEB4E783DDA53AB3EFAC03EBE8A6BC6BD67D8303EE8BB71BCB6E8C7BD641203BE0C92CD3DE422D7BB95F1FD3DB899CC3DAD2289BE46FF93BC3E1C8EBDF42F053EB5CE78BD55559DBDFDB821BEB857743E7B6E5B3EBCDB82BED52D71BDAFB2FBBDD89DD83D4A1E303E6EF2E63D5D70513CA2E640BE4112FDBB3BBEBBBDB2D13DBB79C6C3BDF9E87A3EF31F0B3E2BEE20BD8CCD723D5A281FBEBBD514BE23FB7BBED65864BEF0AF56BEA07E4FBE9642ADBCD5581D3EB8245DBE239535BD80B98DBD3B32813DA0D1CE3BD8D0973D3527BABD7231A13D6775C43D42D9CCBDDE96A73D2771DD3DFD38E73D2C54E0BC238E1BBC3D26703CFCB23FBE841E553E45406CBE2A500EBE8484133EE22FB23D176740BD94FFA3BDF706B0BC2156CC3B354AE6BD9B879ABDC2804EBD168BA1BD1D989C3CD722FBBDB9172EBCC471883E81798D3DBC626EBDAD9F533B90A7C93D1B4468BC4C2B25BE0F8AF3BD81B130BDED9D1CBE4C57FB3DA87891BD30F94E3C565E62BDAAC024BC23E4843ECF1F0BBE0F1F2A3E4DB73D3ECFC313BE6503EB3D16A5E4BDD14F7ABDAB09153E67D9ADBD1D10C23DD6414BBD9FC17D3EFE4FA5BD490B453EE60A913DA7B001BEE58DB9BD08B9FABDD0D3F9BCDB68D53A01A1D43D333B51BE955FC33B78EF33BE581A1ABD8642AEBEE678D8BD356EE73DB612F63CA4D8153E2EDCD53CFB10E2BA43F507BE716787BCB3AC95BD6309E2BC30183CBD37C63E3DA4F18F3A327D483D42161D3E3299A93C7CA0B6BEB78C4FBD0F14243EA203DCBD155AA83D5E43763DE291473D2F6869BD6935423D046B283EED771BBECF678A3BEA587EBD41FD85BE26FB1F3D238A323E187A603EA655A63D5FC7913D2B7C22BEC8B1EBBCE5BB1D3D8665B83D8CB117BE3B29E7BB04241DBE25CEAD3DC7CD02BECA2DABBD95B7833D4A728C3D8307933DF93C593D1CE4313D0FD4D73B12C1A53CECA0BE3D4D21A93D38D8D3BD4C999A3D77C9B73DB403503E1DEC2CBDC340313DC72F263EE6CAB93C6F53823D17A6C8BD66E52C3EF32E2D3EB368103ED20D78BE6DDC533EEABFACBD788B103E5343D4BC39B16C3D916F0ABC2CEFFEBD8A451A3E4A2302BE6D4561BE01682BBEE6CE46BEF417CA3CFEC8E4BDFE53CBBD8BD09A3D82C3CE3D055080BE2A35303EF7471ABEEC7D0C3ED40CDC3DA7B1863D0A5E953D3A266F3EC58D203DB8B467BD86CF4E3E89A9D93DC266D5BC6A252A3C613B8A3DB0B9D1BCB75A433EFA0384BCDA5A15BEAB7F09BE0FA637BECFC8FFBDE2A0403E0E80D63E997DA63D7426953DB4A6EDBCD97440BE7120DF3D7E0330BDA8CEC9BCEAA6BFBDC74071BD2E13AE3D76DD5DBEFBE8243D265C8F3D20E41EBE8440623E4095CBBDD7AAAC3D85368DBC1D9A6ABE0C250BBD5A44123D44F2DEBDD07911BD7E5FE4BD7BD37C3D375EFABD750EBABDF7ADB13CE337423EE17078BDE4BAEFBD5C5D93BDAC5034BEE6C62BBD4DC806BE2F222CBD61DDA5BD824612BE37CC1CBEEFC5ED3D2B92E43D9D2C023DB2E2ACBD958B5EBE1C24E0BD63EB843C99B6393DFD57773C996062BD1F1B6E3CA8C9753D2F8DC5BDE67BB2BC2B730ABEBE9B73BB958D5BBD284EE7BD3EF25CBD225F20BE209B473E6CCED7BCD749B43D34C9A93E78A1943E109703BE65B0913CAE37BD3D40332F3EB4D199BC54A6D639B5E186BD524E4B3E9D80153D13108E3CD20C1A3ED73CF9BDB65C1C3EE6A451BC5871C3BAFA963D3DBB83363D326DF33DF39A8C3D15F3243CC64A503C475AE73CA4117A3E3E75163E196B86BED07DA7BCD21C33BDD5DBDFBD8E37D83C509E35BD7B597F3D540130BDB082913D64FD2A3DC023873E18FE18BEC038CBBD748578BD82A707BE7D3F263C70D5993C31A51FBE89E2733E99D694BDE3C70C3E043A773DF32EA23CA970593E7CE48C3BD766DDBDEBE6813B269F343D8BFFF6BD746602BE401B0B3EECD889BE86ACF53D7C368A3E85488C3C0924933C5DCCD53D3276313EC376BF3DFA6300BE2911613EC462933C7592653D1CF006BDA567A7BDA40BCCBDFA237E3E6A5735BBAE07313E839FB2BB81D136BEC034033E95BD21BD1196A6BD768D283E991A4C3E7F127ABD87C93F3E9856AB3DD221B63C8904123E68B655BDA734BEBA5EA784BE52FB77BE55CAC7BBB9C7EF3D76828CBDFE7768BE936FB73C04568DBDC5128FBDA62E3DBDDC09CEBDF82931BD987EF8BD92CCDDBD9289FFBCF4E68B3BF445673DD292243EBC8880BE095392BCE87B09BE22BD1ABD786588396AE5303E733C54BECF9EB4BC6E298BBDAD0C05BE94A7823D462F71BE8468D43DE57AF13DF8DDED3C31C66E3DAEE21C3E7966343E58ACDFBC1B2DBEBD7F9416BE85C4513DB1A8AEBD27FEC0BD53FFF1BC1C90C1BDD72A243D764F73BE2CD1E4BC8752AD3DB32D113D1D8105BD8E02EEBD22D827BE11B0463C1C4C07BC2059F3BC178049BD4A9A973D938A343E359F08BEFE6AD8BD0B3D1A3C5CC188BD54F6453E07312BBEA81380BDFE76173EDE68353E4721393C4E961C3D3206363E1E0E0B3E66CF41BBC7EB7B3DD127A23D844EDBBBF727093E685B103E1FEBEC3DB653113E4AAE663CD332353E1CC2A33DB6DC24BEA2404EBE23034FBDBE20343D47D089BD3FA1C93D5FF1153E6FD1E2BC455301BD85ACEDBD4A58733D78E041BD72616EBEC1C14DBEBF255FBE981428BE39F7A63EB2B8753DF4ADC2BD5CC789BE470E943D2C06913DA311AA3D4AAD0B3D83814EBD5D6255BED5FBF63DCA7E863C0BB46F3EF2EA6C3DA5CA73BDD74E3BBD94BC303DF621A0BD3816773D43AA593D252BA13C5927363DD42DAD3D6057403E2D275DBD750720BE863F42BD1C4923BD5B8D033E3D0A113D5018053ECFB21B3E65D905BE6C6D98BED650B03DD8E944BE351B03BEB101B43DB70FD33DC2F6903D283CD0BC0BB64E3DCD3228BE4F7CF7BCD991063EB70964BE14586DBD2B8645BD1685E1BC03A8243E2CA11D3EFF5A55BD58D4253D66F9703E237F9F3D48068FBDAFCE52BEE4B491BEF182A4BD0217233DF4B8B83D1F18883D9EB41C3E2A8646BC01892BBE1474693E5234B4BD0C2D0DBEF827F2BDCD4F033EF40AB83D39873BBD00FB293EF2317BBD2B85763EC966513DD7CD8F3E506F593D433197BDF32687BD4259603DA17B8ABDF2535ABC8F3F2FBDA67CA93DF8CFAC3CA7DAA23CDD7090BED0AD863D8716D93D6E251D3E047D943D8B49AEBD87F50CBEDBBBD23D8E879DBC3529F7BD1FF712BDBF88EA3C6DF822BEC69D5D3DDDFB35BECBEF2F3E37E0213E533A1B3E4DA705BEBFCA913C2E15CF3CA29B083DE1DEDB3D03547BBDBE23F23D442F823E35164FBECD8DE53CF3296EBC034397BD8D6209BDB3FDC73D750FAEBDCC340E3E8BD0EEBD31BC363D056F96BC061E35BE8678433E5F1D0FBEE485E13D95DE2E3E9785803DD5A4A13EEA0314BEEAB4AABD4325C73C394733BE2DC44DBDECC5933EAD9CD3BDC9B71FBE5457C23D8BB37ABCBF56A4BE008D06BE89B02B3E531472BDE54256BDCF624CBDDF389CBDE2E1503EEE6D89BDCAD301BEEFBA083EB7A6003E166B90BD5942723DCC452C3D50435A3DEDC0A3BDAA9C43BEB2B599BD91D283BDA170313E8D97613DC603423CC1463F3CF9849BBDF6FC2EBB1C2D713B0F868BBD415B8F3BAF2DCABD8B9693BE08335A3E2D32123C261B173E7A67AEBD0760463D0B6A343ECE94F83CCF7EB73B7550A5BDE020B2BD41BABB3C63C918BD14631ABE5EE1A9BD7D7D1E3E8873043EA1CAAABE6135D53D6F830B3EBF99AE3D7B75F0BB8F16E53DF2FF883A2B304E3A884A123E0E303C3DE2FC1A3D327B2D3E7ED69C3C53383D3D35814BBD49A819BE5046113D4AB8E4BCAEC1AF3C8C64F8BCA92E68BEFA307FBD54E2DCBD1BDDB6BB8E4C47BDC3FE13BDCCFD3D3D38B50F3E173CB03E6FD8B1BD14589CBE81BBD9BCD244A8BE9FB712BC676C0C3E87382E3E8ACEE3BBB1060E3D76DBE5BD6F8EA9BC2B4F7F3B0933E53C89D6A53D97E5463DAEDD4FBDF06CAABD65AC193E2C0F95BDB0D7DD3DC8A26BBD4A2F1E3E239E8BBEEFA6A33DCB89A5BD1F3751BDF4A79D3DE7C5F5BD3794EEBDB290FC3DA5109ABC9938083E523BFBBD387EA4BD71C917BE69B85A3E1ECADFBD44B9393BDCCF2F3E5C68913D58DA553EC4FAC83D11D0E13DF6AAE13D9EFE8F3C8735323DCB3E993DDC70863D2D28E73D1FBCFF3CCFFB343E21C8383E0C932FBEAA89893B2CF870BEEDB5D7BD5C6A073E874B6FBDC8E98ABE68884FBE474EA33D915F7D3C627609BE9676DD3D674A583ECC68273E4A75F2BDB7D03C3DCC2A163A86B601BED864A6BD20CD93BA37989BBE19C1A1BDC8ED253E0A7251BD0E515D3DC20570BD0CDE713DCC3301BE3F8509BDEE96853C11410FBEA60A1ABB280E1ABE9136B43DF194563DD2A2D53D7CB846BDBA06A0BD1704473D51002B3D2281DDBD8BE7263D1BF2C4BB460EC0BC8955B53D13E91A3E6808DDBDB518693DCF902ABE3389503ED90279BE974EF53D4244553E1A3336BEA5AA0DBEEFA0DDBC0B9F8EBD7B4E8BBD6DA2043E7F8B233C69B3E53D691DFF3D1C45E4BD8A2F593E306D8ABC0BBF163E2D38D4BDAB9D3D3EFFF27DBEC2671EBEF8892D3D087DEE3D4E01B83C9D08BD3D1DF2083D0CD716BDE088FBBDEC2B90BD8A23B1BC2F1615BE4E34F33C5F04B13DBED121BE9CCCF93DA0784B3E7BE99F3C5BB2143D2A913FBE600FD13D966F44BDD0CFF73DBD4AB23C904B283D7C672E3EAB938EBC265D8FBEE2C4D13C3D989B3D878A963D6ECB033E626CF23DAE6B83BD4F268DBE1A3B1FBE2FF813BEABD1E33CFC6151BE090978BE27C411BD41CCAE3DA34AE4BD1E882EBEB93ACABD533EE53C0555A7BD737828BEF9A657BDEB53F4BD934096BCE427F5BD29A4FFBD4E0C5B3D4510C63DFF8B5BBE1EC1E33DE815EA3DA1AF08BE11B0A8BB069102BD44B522BABB22DF3B1777973E8014713D56F301BE837EC3BCDA8AD3BDC56D11BE9C3EEF3C7E1AFDBCA62C19BDCFF1FBBD3BE5103E09A71C3E6CAEF4BC538DBBBCA2BBB2BEAB1B0E3EDEABD9BDC2302C3C67AE023E6566E4BD54AAF73BC0DEFC3B807A9C3D54FF7FBDC0AD67BE5785043DCD06A53DCCE7F73D3E0F9D3B59DE0EBE72E1E43CDDA040BD7711CA3D5F8B833E431433BED0D8EE3D97576BBDF0AD0FBECE41073E4622733EE008363E8D750BBE08E64F3EBD9E383DD9373D3D7EF1DF3C6BB94ABD99391F3E3EBB84BD7A8BA2BD557FB5BB2ACD6BBE168E603D4E9B51BDD64C11BE7960B7BD6C76893EA8569C3D208266BD05BCEEBC9943223DC3F88DBD9612043DCF48793DF89637BEC65156BE36D644BD3DB6053DDE1C4ABE0A46ABBAD502573DF661A03CA206C2BD03C41ABEC8DC18BEFAC53B3DC236C23D5EF401BDC842423E1E1D2CBE1F9EE6BD37ED35BE93CCAA3C282604BEA755703EBB8809BE442B65BD3055133E547449BE511F88BE6383083E45EDCD3D5543ACBC3A0963BE33813EBE9678213E39F366BD3FD84C3E57541D3EB72C9DBD9143953D4229CCBDA66EE7BCD304C63DC76C073E988238BD7F0C433E48493ABD6F62173DD5A3C6BCAEBAB9BDF33F61BD73E1C43C44412DBE77B679BD19AADE3D2647AB3DB0A019BDC5BB09BDC6E9333D63243C3EFCA1913D4DA3853EB4F6E13DB070073E3DD8E33C6891233E209C1ABE795F82BC7058EFBD19EF2A3DA4092D3D4E77923D0AC01F3EF40AADBD093BEF3DF6C1AB3D0B0D023D3E2A84BD7CE6BD3CC41A083E6143D9BCAEE44ABE9A4FDA3D029B713EEB4D7D3DCD00443ED6F4663EEB2BFC3D850811BE053EB33D3107503DA7789DBB60743A3EC94D4FBD8B67C83C9A86593D5A8C3DBDC1CA3EBD472FBFBCDD2BAA3DD1F5EE3DEBC2D13CD86525BEE009423E3138743DFB77EFBDF37BFABBEE5E5FBCFC69913DF9FC3ABD84751BBD9EB7823E239261BDD92C5D3EC47AA33E4611413E6D5662BE05F3D13D204069BAE3CA7C3D0DF9CA3C23E19E3B965FB4BBC289473E4AB6093B4C586EBBA4A6C43CEED87EBD490ADB3D303C6B3CA851BB3C02D7573D44DAA2BDFE75B9BBDB0C1E3E676F4EBD17DBB4BE78C96ABD997423BE6EE842BBCF37953D00CD5BBD902E3DBD2146ADBD6A6BF5BB38766ABD76CA57BE95B7323E21F6C63D070719BEFB1A333E48501EBC34A862BD7283993EB914113EF8DF4CBD8CDD2D3CA4AA37BE0800983D5EDBB8BC5B1734BE51AA3C3EB78BBEBDC477703D8A3719BDAA25CABC6B1328BEB2EF703EF127CC3D16C79E3D13D82D3DF912943EEA6402BD3003BDBDD36DDD3D8B86DFBBE26CB43D29B2DCBC7A4594BD29AF51BEB2DD033EC7D97DBE8EED5BBD2DB384BD325B0F3E24C1A13DBABC2B3ED8B9953D4F3FCABDFF4C613D9770D13DE152BEBC308339BDC89008BE0A1727BE3E95FFBC7984583E8CAD9B3E50C5563B2846A53EB4319C3BCA963FBC5C65833D880580BDD48F20BDA49C51BE59BA70BDC953ACBD4CD7733C90AFC43C802204BE01EF69BE8575B9BD6655EE3C7AD1183ECF6A61BB2CBD0ABC7ACB60BD2362FABD7DA5B83C7781EB3CA06E8F3ED3BFA9BD62D157BD4AD3833CD437DB3D45CE55BD9857FFBD5231B23D5AD1F538A35B7EBED26B0FBAA819183E50EB7BBDC212CB3D7BDD3E3E1AC61B3A17F22A3E47A9E83C2291F03C4766973DA3EE6EBE4F52D33D1B44B43D11CA053D4DE7F1BDF9CF35BE97B7A6BDA6955CBE"> : tensor<64x64xf32>) : tensor<64x64xf32>
  ml_program.global private mutable @_params$10(dense<0.000000e+00> : tensor<64xf32>) : tensor<64xf32>
  ml_program.global private mutable @_params$11(dense<"0x580A87BE4511E6BDED9267BDEB2DB43B6C8715BE4FE0883E2930EEBDE0B746BDE0E9303D92FBAF3DE59C38BD2121CFBBCE508ABDEA7F273D495C073C65FF4EBDB1914DBEC68A973DB9359FBDFE70C73DA6ED233E592217BCD37D04BEF34672BDDCAE2D3EFA893E3C701340BA4A22C13DD245BC3DDE8EDEBDA1A5333D65314EBDBED64B3D6959E33C669EA93C1645DA3D6F1A65BE79B9B63DD7159FBCCC13133DA9318A3D817D53BD8895FC3D9BBC633CF10A71BE0C48E73DB9CC2D3E52B130BE2F250E3E52C92FBE2800B13D7FBD283DF10EC33D14175B3EC2BDB63EEB4388BDC2E696BD2EAC30BEC4057D3E0231243E8980D23D39BB16BDDCDBCB3D0D42733D1155AFBCCCEEE9BD4E46903D34C5193D3C2BBCBC6D0B083976D1C43D7CA3D83DFF87ACBCE57AC7BDCA6FA73D40DA41BCF6E3D53C859B78BDECA436BE048163BE84F419BD18CBA3BD7C09363E92B4CABD5210B6BEA63D1CBE69DF85BD3E379DBDAB4B4CBEB57542BECBF163BD6A2806BD80CF64BEC1C246BEDB44C83DDC9C8E3C9CE0A9BDB0BB643ED669183E411F843E838DE63D2A618B3D9637F2BDA3C3263D674BA23DAB51CDBD77EEE23CBE0BC83D970A3B3E1EA156BD7DE1013EBB61683DAE264FBBCD5B8BBD8618E63D4A500FBDC81F0DBB74F5593D53520E3D577EFBBCCC948DBD15EA2ABD65BC463E9A67733D7E4CE63CF34976BE93BA7FBE8BA4073EE157303C772F483E9FB3CE3DB3915FBD96784DBDF1E6C6BDEC78CDBCBCB68BBE61C79B3DB7BC61BEA0E04ABD8826B03EA400213C23489EBC84DF39BC9D4E54BD5847C0BDA8D325BED470073EBD37C4BC8F2E493C6CD9143E2B11DD3C2E0BD1BC50AD823D52DD493D095C1ABD140B163E92EA62BE77307F3D5A0546BDE4C8283DB00B5EBED56D7CBE9F494BBE9861E13C2B8129BEAB972E3E0474C93CA683A0BCDF6CC43D137A013E4913A73DA3CAE539F466CB3DFF7EE2BDD90E0D3DBC2EA93D1FD64ABE173D4FBE44867C3D619E293DD6280BBE6E26623DD98D2DBEDB6FD6BD2AA55A3D9B46ACBD27895F3EEBA8313E6F36883C38BAB1BBAE47FF3DC5F45FBDA7BABDB903CCD13CC675AB3D6B796A3D1A6303BDE4B64D3DEEC284BDD34A8E3D3EDB3FBECB1DBB3C75CC573D2328E93D354B713DD02C56BD2EC95F3E9F070B3DA7BA8ABD0BC4D13D5F5B293E74FCAC3DE75001BEB2BAEBBD3E88B23E4C7399BDED8F74BD14D2403D14FA85BCA7C7163EF01E5F3D89B2603DD6786BBE4CD28ABE8979B83DDD8617BDEC488DBD4810133E17928BBD8A9AAABDEAFEB83E134F07BE618ECB3D6BE21EBECCDF59BD3D7E033D1E0654BD01F31FBEFD5F533E6957BABDDDA3B93DAA17283DBDCF1BBE3F0DEEBB67B548BC6799143E9BB1A8BD375E1A3EFADE443E4F3E5DBD2E62153D46C1973CEB097E3DC7997D3D87247CBE951981384074BF3D01B9A83DCD06323D0E8D39BE13BC2DBE66093F3E940F1BBC3CA7F6BDD349EABDCBF7F2BDBDE58D3E7ABBB5BC0F14D33B81266ABE0AB082BDCEE7C73DABC31EBC8BBE09BE0BB8D1BC9D52973D5A1EA5BDC43B6FBD8F96153EB7570F3ADD4D913E53B6E23D56D6893D52C20D3E8E569ABD5C55DABA89B4CFBDBD95B0BC528B66BDF42A3D3C9363203E4EE7923D5332E6BD086A783EFF3327BEE5F3A03EC76FE03B61F523BE719AB53C3587FABC7BDB8FBC8548C9BD4EC18DBDC1D0993DFE51C1BCD77E7E3DE066CBBD8A50B33D8E58583EDF1DBFBD61478C3D0040A53D757464BE44A41B3E9F4268BE8008003CE474C83C164EFA3DAB79B1BD7499143D246A673E4B2C2CBE363AB1BDF79F69BD13DACB3D7ECAEF3D1D2E553EA2E59EBD22F4DEBDBCC736BBF7EE94BEF4DDCEBDC6B552BD04C4913DF7F939BD864C41BE806801BE12FAFEBDF84A8CBD9560BDBD553180BD945904BC8F3AD0BCC9DE0E3E9A0CA83DAE84413E3A25133E38C48B3D1E0106BD9E71F63C507ED6BBDA6F98BDA97122BD931366BD909A2DBDEC1E183C6650D7BD53E9DFBDD9E31B3D84102DBEC5D2033EB0EE11BB6A473A3D18C6893DB3302B3E381CBB3D652D723E8C67DA3C760084BC958BF8BB2DC980BECC214B3D7D45D73C1166DFBD67CDDCBCEDECB0BDA825AABE0B449DBEF073F6BDA6584ABE987ADB3D63B4323CE8390FBDDEB8ABBD36229FBCBB41023D88978BBEF1F4763D169B0ABEEE1EA5BD72264BBDD194173CFCFC1BBEFFA4753DE2BE973D92CCB4BD6E2A823D685DD8BDBB7EFB3D4B8424BD764396BC9C8E7EBC40E56FBDDF0F5F3EF28A19BE189D8B3E48EC81BE93A39B3DAB7998BD84877EBC27B117BC2E1DF53DC6105B3C5E3A993D4395F3BDA87AB2BD599B653D9280583CB31E573C94D2C2BD1D0BF2BD76049EBE9E74693D6465783E2FE25E3E17FCA7BC1077113D6B4023BDAD7C10BE56B0CEBD376F8A3D6768693E04BE8CBCEEE8DDBD2750B33D69DC84BEA2EFCFBCD11182BD3C5D08BE9E7D8ABD61E63BBE0BD1FF3D33DB093E375558BD26970ABEA34320BE5A8D0BBD30439CBD5895FDBD5CF0F0BD44BFDBBD3F168E3C14819D3DC5A374BE1A2A68BD01F5D33C71210CBE0639963C37A9F93D1F57403EEBF59A3BB210803D298BAD3CBD5F2C3DBDED063D428D0A3C5C45233EEFC861BDA253EB3D358A97BDA66115BD4192AEBD84E4B23D31928F3D4020CFBDAB223FBD94F163BE7775A03E9A29C93C4ED6663E3135A43D71E8C43D899C393E29F83A3EB6A90DBE551992BD86AF2F3E37BAAD3D576E743DC24DE83DF6FBCBBDF3443F3EE8FB0D3E1BA2223D188639BD14D0653E2BCE5A3E2B071F3E9613863DFF49A23D06760B3EFE1F283E65501D3EABB9C9BDB38E8BBD4B48A3BDB64B02BD4726E2BD5BECF53C8B16C23DC3F6B43DD99875BE61E299BDD91133BD8546F43C6E9E60BE1F8252BCAF952DBD74676FBDC0FBA7BD3A4E88BD8760C3BD2BE7DA3CB5AD15BE67B12B3EF29CC23D30B38EBD896FF9BD7274B03D5308463D27C497BCC4AFAEBD12AA883E33F2FE3DD0E1903EE7B22C3C47F58C3D8231C5BD754646BE31A135BE0A14523E4F16263E4B09C03D0BCFB5BDF799F7BA4B6D133E1B630F3ECBAE74BD0215CEBDB8CF823CB18ED83D762410BE65F50F3E078909BEE739933DAC8C223D229D923E4FE5A3BDD6434D3CB3EF843DCB5227BD7B1F53BED2B93EBC23E67EBEA169CE3D756F76BE058E943D37FF983D44C504BDF5A9FD3B3154513C26717F3E05BC63BD0CE3CDBD65EA263DA3C5A23C21F157BCF122AF3D018F63BC53B8013D8360AA3D055991BEAB3026BE58B7463E6A866B3DCD8407BDF7D108BE1A3C193D5AF8DEBDBBE30BBE4A2EB7BDF5E245BE7EA2AE3D8BF4033D2F80E6BD9E4A12BDFE00A1BD761BBD3EF9CF3E3DFDF06FBE4F173F3E1287CF3C4D310C3D5C842ABD7A8C4A3EC04424BE977E5BBE6BF02E3D5F330C3DBA6F943D75B796BD5728D63D9B2FABBDD23D783D2176203E6C01163EEA7C8EBE39FC95BD09BA8DBD8BE0ED3D6A36F83DC894B4BCDF540C3E0EB404BEFBD4B4BDCDC1C23CFFFF8B3D8E52DB3D172A363E10DB073D9C2E91BDF86531BDE5869FBD58ABABBCF84A9ABD4E90C2BD27D0D03D2D5D23BE64FE9D3D1C6AC13D102BCEBD919EA5BDB0887F3E0FBC3CBE19F79A3D78EBF3BAD3860ABEB477D03DD85B3D3C1D793E3E1B2208BE835E0C3E75491FBD5466EFBA9DA0683DF424073E5DB0C1BC1F16BE3B0E9446BE70F80CBDAC20C0BD14EF243D4649573D29263FBDF31504BE34018F3E7C9E503E48B821BE875E0FBD82FE83BDA1FC023E8CB0263DA2D351BCD151503ED464BF3C71003C3E6972C6BDAA8CC43DEA43383E91BD21BDE1501B3EDBA983BC268D203E4874843D27411BBE1E0B343E4DACB0BDC64B043E743236BE742309BED593AA3D495D4A3D7F37043D6C0203BE406209BECE77D2BCB37D9FBDC2F0EA3D4F2FC83DC9567DBD62848DBEBBE54D3EF1BD01BE62760B3DB77B5F3D8707833D8BBC77BCE33C57BE6242D83D02DFB43DB092FBBD03C8473E8A811DBD02C40BBE4CAC7F3C83549C3DE54E6E3D07B983BD0D72E43BA70BFC3C66C6253CD05CEABD3A54EBBC2297F0BDAF49803EF607D0BDA7A450BEBA0B10BE28252C3E15D9FC3D424CC33D0168C0BC45CB76BE8DBB433DFC64393EF8D96BBE483D853EAC2A013EC57CEABB4252C6BD875B433D22AC3CBE7083FBBCBBCB3D3ECFBCC7BD13F63ABE8B690D3E66CA9BBDD23A1D3E6B48FBBD2828F73C427C74BE7878B4BDB6ADCC3D7B02453C150206BECF2334BE4BB7103ED6BD18BEB21AB7BDBCFA5E3D1D3506BE0C2B7F3D60891E3CC8E5B9BDA0EF053D1B5520BDBD085A3C3886A43D9012FE3CEA1BA4BDF4551F3D9D610ABD791D793E6495A43D17CED2BDB96EC3BD8112E93C75AC1FBD9877943DEB2DBA3D44D294BE26029B3D12BBC83D40EB373E3F2FDABC689EE63C472270BEFF5786BD27C867BD01791FBE79B480BEA8836FBDFCF27D3D1CF27CBDD19D893D39869B3E7AAB5D3E49A9003E3D3797BC6E8536BDC127B9BDFE42FDBC2A93A9BCA214A63C70A93C3D83CB9C3C29F60CBE564050BEA1C1D3BCAE33E13D3F8F0A3E767365BDF7C8393D9F95983D7399253D4945FFBD5323443EC370213EA12CBE3D02CC073E78AE29BE4C978E3D806BE5BD2D95013DCEBC453C2C0E193E23B0B53D266E5DBDC45231BE6AD716BE4ACE8CBEE4E8B23BDA8C6FBEBA16A3BD2BE1D5BCAF6A21BCC887E9BDEB1CF43D1140C43D107CC6BB075ED23C5F23963DDAFBCCBD385CD93CB1EED8BD020BC9BD7FB87FBE4065E43C4D2CC43E1B98D1BDDBC9DABD1E7C3B3EDFED5BBE52CCCE3D3F5137BEB15BE93D59E39EBD26C8D9BD9C8E7D3DE8B8B7BD53E0723D531902BEB44AFA3C0FD9A9BD4209653D33D952BE81D8B53C72C7DA3C1C36C73D3A44C0BD3999123E2BA5663EF1F2303DED5C2A3EEFDBE7BDECCA81BEC3C664BD9E93013E82399D3DBC91BBBD56DC063D6267D73C0E27F93DACFB24BD900133BE688E45BEA2FE42BEA88C2E3ED67441BDA66456BDD93981BD2C74AA3817A73D3D4F19E63C738410BD8DD0423EF02DB6BDE65B603D6E2508BCE60017BD4BB486BE893834BC141BD8BD0158143CF756123EFFA644BD1974C23DE7E553BE7E16FE3DFFAF9F3D36DE143EEBA2873DF07AD7BEF3C8AB3D5F3ED3BD9DA7613DC7A777BE134D34BDA1DD47BD7F96663E0E0458BEA70FEFBCFC4EDFBD4F6C693E619589BCEDABB9BD67C8E7BD2CC18B3DDBD941BBFFCDFB3CD282613E0ABD433E6BE0913DB782823B0368603BCD430A3EAF2D0FBD4561783C54C8A5BDA47B6CBE4B6F8CBD25FF143E4F8ED13BCBFD3BBDA49D1CBD2CF12ABD42A40EBEA94E503C47944A3DF14B1DBC31EF47BDCE9096BDA684153DA06901BD3475B4BC10C622BEA7110ABE96BA203E525148BCE64A95BD12D5EE3C1F006DBEEBD8FD3CEE315EBBEE4DB03C28646D3C808B803D2079D73C0B837D3DAFB40ABD22B675BEBB99473D443BB53D60A1423E7D30B0BDD09F2BBD01418CBE421FD13DB87109BE389EDE3D2E7FE0BC4C30353CFC1432BBA4A69D3D89E0213ECBAD9B3EBCBB06BC49F1163D4316B6BDDB6836BE401C06BEC6121ABE8A096F3EA8A0AB3D805D17BE8A21E1BCEBA9D93DC1E4A2BC3984973BCE27C23C1B98823E6908B83D9088193E4FD7EB3C0EABB53BCC19883C4A65853E0016293C0D6C843DF76B283EBDCFD13D4F0B23BC53FC1A3E281BE1BD3ED1B13D5CCA793EEBF4663C2081F2BD74FC7B3E487F863DAA0D42BD7DB296BD87E27C3D160B2A3E7A84C53CAE67C5BDAF79C53D50D8B6BD0C095DBC91E177BDC1ED0EBCE5B544BD2EFD9ABDB4B5863DF132093EC2888ABE40B2AFBD9C21D63D7AA0ABBD7A93BD3CAB8F023E1A4C63BE2A69B03D3769A73B55D10DBC8FDF613D301371BD1CCA323DBCA3C2BD6B621A3E7CBFA9BD0295303EF19B173E933BA93E861460BC874EC7BCDA236F3CC5749E3EA0C0513B691045BE38332C3DF06FCCBD9888E3BDA4FCEB3B0AD6A43DF41151BCDBE672BEE0461E3E768F9EBD12835F3E6BCD283E9ADFCE3C609125BD750385BC36285F3ED74084BE4458013E491342BDE9BEBF3D68CCAE3D295CDB3DE30F663D1B9E1CBEE58D8F3BE6D006BD5D765ABC4CF0FB3D93D8D13D046D533E5FBFD4BD52A3E1BC12C5B0BD12A41FBEFE68C5BD9E280DBE8FE0D43C44A8A13DA40D74BEB9CF96BE49643C3EF08F4BBED723AEBD8EE5B5BD5F20753E9CC6B4BD2C9A39BE72C75DBD9B8110BD800967BD8A13183ED5FBE63DD15F36BC3355D3BD9878B93D6732043EE417F2BDC6888ABC7D88AABDE3656F3DC116453E3C56B8BCD26E2A3E82F2423E207917BD5F84F73C08B2743D22860EBDA59AD33C4DE118BCD69CF7BDD2DA113D663423BDF22EB53C79650DBD7A79A6BD1137F03DF9B10D3E09E8883A7B26D63DECE388BE09F646BD158FCE3DBFFF31BE3A14D7BBB4C796BC0E30773E32652F3EF426B8BDA2A15A3E4446043D0725413C20E5383DBB58293D42B3093E9690E4BD3091F83DC82A21BEF32E11BD197FAABCBF20BDBDAD2D473DCA3D23BEA0AA403E7148663EDA75303D0C640EBD122A0E3E49E1CB3C0BABA33DD652FC3CB57C23BCF07990BDADB8E43D464C0BBDBBB21FBDF0C1503EF90163BDED82343DD315393D425445BCFC6C22BC83F3BDBD4FFC053E6AB716BEDFA4EF3DDC86393C13F757BE81241C3E0B3180BD7405303C31FC4A3EFFC9333BA7BE343D8A3F653E4DA83ABEEC328EBCDCB25B3E5EC81A3E1C56933DC48B613E0A471D3CE7F677BEAB61FB3DEB4B56BE1077A7BDE7AA8D3EBF35283E029A3F3D18DA8EBB5D09523D4129B73DDEC4EBBC8F4741BE353758BEDD63DDBCC052B8BABE7C4EBE24728F3E7F043EBEDBBFB63DBC3794BD7758AD3DF0D712BB230AB0BDD2AAAC3DB45A853D3A21DFBD398F4C3E6E37A0BDCF8FB9BA495E98BCD13A3A3D9831DD3D51CB4B3E8C5D693EF4AE9D3DCFDA9B3BB61ADFBDEF69003E11B6883EC75CD73D8561653E6860603D9DDA153E2A9A223DC6A807BD650428BD0F9921BE7786D7BD326D21BD2626293DA436293D3957B33D5B2F1BBEAC4FE0BD9E8B06BE3C9369BC59A990BE3907833CD119BC3D6242B5BC236AEB3DA150173DB477303E18A0583C3306973EEAFBF9BD888540BDF7C0413C498EC5BD73CB0BBD9428873CEF5818BC645F6A3EAF0A32BEE0BCD5BD3920213D63A303BCAA19853D1B252ABE3F6A153E53735FBCD1B831BC0CB2A53DD0726FBE644737BCBD94A23DEEA7EEBD152D71BD18C608BD140A84BE1E403C3DADC5273CBD051D3ECB5A0B3DE33872BCEDF145BD8F90B0BCA4E53E3E0F0CAABD14880FBEDBEECD3D2BF4A73DB7D3DA3D0421243E60772ABDF45488BE8F42AB3C33E6F33D12432E3EF0302F3EDC50F1BD270392BE0A9E173EA7D9B7BBD227B03DF69A64BB75E37ABD2362DD3D4AE3A23D0557DA3D4F83173E0B75BD3DCAB5C6BD6930F1BC27C1E23DC86E8CBEFBD589BE90BD3DBD2CFA3DBCC6F12ABD491C283DE970923D15BCEC3C4F55C2BD2B262F3C4462DE3C008E683DCABD1BBDA2DA823E43712BBDF2296ABEF9F77FBD915209BE16EC983D6BC6953DD1BB14BECCA7F2BC332554BCBB55A23EB87FCEBCFA33B3BABA52E23C62C3823EE0BDBA3D4E79AEBBDC4C103E7AA0EE3D5CFF18BE0ABE27BDF54BE4BBCB169EBBB7E7F2BDC0341DBE2E769BBBD0774ABDD2614F3D28DE42BCA0D6D63D5B235D3E582B013E8957C03D0B650B3E0E8407BEC4DB8D3E2BC8913EF07A703C2030453E48BBDC3DA6D6B5BD6916EEBD1360673C606AFE3C35FD2FBDF9CB013D0D91E9BD659728BE8CAE63BD9E99263D37477FBB1A8E54BE0F740DBEB794E3BD1A2E7A3D48D92D3DFCC577BDDD2852BE7B11C23B9582E53C3DA92D3EB26555BE57B700BEC43FFB3DCF43C9BD35EC37BEA84D893DD8E6223DCD6E72BEBDD0063E59AB333D6E9876BB42DB733EC647FDBD0C80CD3D60E930BE0976AA3CD5AD113EFF50AF3C9D28C9BBC8428EBDAE6681BDB5EFBFBD0376A9BD769776BE3AB8D9BCDF9C18BE817705BE82CBEB3DEB5065BDC7CB05BEB10EC5BCFB626DBB7E1481BD686B06BD59D0F33C14092C3D1D18203ED9A2CABB064FEFBB4A29013D5D15883D20565BBD0AABAA3D6FD6B0BBEF8F3D3DB5383C3D6BD6F5BD433E27BEDC4C233C49011ABC80A162BE283DB5BD5AEEDCBD351D69BD7DD59EBAA4E1703E1833223B20930A3D7A0D3CBDFC1052BD5DB9073DB3998BBE973E863D2F9BA8BEDCEC2C3E041A0ABD7973453E4C48783EBAFE2B3D12AC9BBE2EE510BDCCBC953D3BCFC3BD353E92BD24E59B3DCF5E453E32B8683D3498EABC20DE86BE6F5281BD68BD753EC23C503EE0DC81BD7DC902BD5FA4803D757E1F3E3CBEA8BC28ED0F3CBA155E3E525A12BC781E8E3DC881F23A5753AB3D322B01BED64034BE2FCB493C994019BEC4312D3E1D119A3DD101843D5A3E8B3CCE2140BD5DCCCE3CD2FDE43DDC0582BDF9708CBDA11C933D1A955D3E968F0E3E8478C8BC66F5DD3D5BBB8D3D3DF9BE3C150E8C3DE8B49F3E92F8A43EEEC10B3DA1D155BDB349F1BD87CE06BE269854BE907651BE27010A3D87E9FFBD7295193EB626B73B2268E9BD96ED6CBDB087ED3D02B491BDD125043E1861ECBD7FFCE23D238F8CBDE3F06FBC1472B13C3DF447BE337D873C1EF43E3DF6ABADBDFF380EBE33C7033EEEB756BD6D7D8C3D762A80BEF35F02BDBA2D9D3DCA86C1BD1E3703BEF9DD273ED224F03DD96EBCBD05EFA23D06A1E2BDCCFBE23D649E673D65523FBE7FFF283EED432B3EAD2E283E9BA372BDA8C9BCBC98D3313D804CD1BCC4A4DBBD5021893D1AC8D2BCFD94AABDD701133E1F6B6C3B5A35ECBDB09554BD9AC465BEE093673D3C35D7B9F17703BE0FB904BECB2DDDBD1344B33E5D55A6BDCF73F63DA17C21BECF8CCCBD8EE23A3D1D5FF4BDF101B83D5ED34E3EF6D926BE792A52BA74690EBEC631A3BDCD5814BEEAAC3E3D3B0A96BD4569413ED786E5BD943A7ABED31B3CBD9F0DEEBDE60F2DBD15C23ABE2CF296BC44A1E63C6B259D3DC32A0ABD956A88BD9B979BBEAC400CBEC6D30FBE60E2C83C8EA2123DCA60693DA30B05BD165A5E3EA7908ABD949C43BE713E27BEB64279BD5F0FB9BDB2863E3D5C19F63C1142203C9D4D88BD3CDA76BEE8643B3EA15D5BBE112D58BC556FA83D3B5022BE949D43BA73F2733C8CE70BBE2051E2BC9272BA3D904C39BBA77E09BCBF6A42BC488C1B3C5B94423EDA8B773DFDD6BE3B5FCE29BDF09AE3BDEDBD063E81414F3ED18F2C3E531381BE29C36E3E16AA593EEF9A623D2255C0BC8A12A83B060200BE307AA7BDB7FC4ABEFB8CFB3DB31A423EBC1F5CBD8CF013BDE9ABB4BDE2958A3DC2BEB03DE6E64A3EB1DE8EBEC176B53AC39939BD13D1903D7140353E2773BF3D07A26DBD40EF963D51D1FCBC5535CDBD6E265F3D2A40ED3DACC007BED247C33DF1FA1BBCE232A9BD340BF3BCC270B9BC8DCD423EBA7B003E560A613E80B050BD38520F3E5ED2B93DE34BC9BD7D6439BD055FE83D5C09263D5853E63D09CC1ABE9400F9BDD988873D390CEC3DE368D7BCFB1EFB3D0431EABD8376B1BC12335E3EFB25373CDDABFD3C73AEB6BD0ED105BEB1550EBD2926EB3C05EC72BDEDA05A3DB4A3753CAF60553EF0586DBE745CA73E809763BEF2D4B1BD253C7DBEC8B723BEB7B7833CD5963EBE53FC29BE1F459D3C665B483E074088BD2C117739C4D6E3BDC07AC8BC9AB22CBD347D3ABE869700BEF8B212BD4B321F3DE5D360BDC5B412BCE6AD893E161206BE7D7EFABDB098273E7EEE44BDD200C03A9FA9A8BEB8CBFDBD96AF83BEEA6A073E53F1053E24570EBDE331A7BD47BEE73C3F8321BD8C50DE3C622249BE48DEA53D47D1763E51F4823D82FD5DBE275BAFBDE3A69ABD4EA52ABEBCF10DBD8FC6DF3C24E7BD3C6B8B8DBDCA8E58BC0ABEC5BD0CA9D6BDC3848CBC5867553EA4DE623B4BC9C13DDA80E1BDB2A5BDBD7542103D413A253EF0672D3D6BFAAB3DBF48563D75B340BE16FF093E5E2B873DFF9ABEBDDCC20CBE2F7D56BC9E8C4B3D489F143EF9DC863E9FECB93C5363D0BC29D5EB3DC1AD683CEA68113EBA5C18BE3C40973DC6B61A3E7C1923BDFD0364BE11D26ABD1D5BB63C47CE163C33A8A33D305E8ABD6F059C3E3C52553D31E5173D63BE6F3D2CF7D63D47081A3E5EE911BDC7029E3D77DCB33DE518EE3DD1E7D9BDF3E51A3E9869FA3DC2CF4CBD589843BD87E2BF3C085A363D4EBAD83D212825BEF298EB3C0376E13B9C624CBE136617BE09B954BDE4718EBC1D453CBEBA38A53ED209593EC21D5FBD079EB93D8CE59F3D6BEB853C520858BDE667833D5117643E2C9085BD4423EA3D7792753D19BB40BEB73C28BD2087B23DB03E823D07C33FBD9AC7C2BCC69C153E3C27D13C777D8BBECEA60B3ED8B8513D1C0D0CBE431B393EA339D3BD798DB0BD59A042BE689636BE653395BDD12DF9BD58624FBEDDEF8E3DD1B044BD4E0C003EC7ADDA3D8329C13CE211E9BC94F4B5BBC800ECBD818E89BD5442C1BC797260BE5D829FBDC8578B3EF269E8BDDA88903E6A7BBF3CEDA8B3BD4D11DBBD5A7911BEBB3A0A3E36570B3ED6D88D3EA029B9BCC0A8F5BD3521263DA814B3BD2AE5E83BFF2C083E6F16B9BD57DAB53DB7EE33BD2207123D60DE1ABEB40DD23C2837033D27E2853C519222BE5FFB0D3EDFCB8F3D40DE6BBD6983FE3DE73B33BE68BD703DE9FDD53C8BE469BDC5EC82BD24CACC3C9E93683E637B943BA61108BD8096193E43AF933EACF2C7BD06C54F3E20029BBDA57FE3BD060E313E97BD183E8498D0BDF724FD3C700A873DBC771FBE9C8E9A3DA44D78BDDADC71BE29E10FBED58D57BE8A9C2BBEFEBDF03CF75891BD210CB0BEFF4FFA3D1AE09E3E9FA5B63D7B25C73DF6DD85BD2F5B4CBC3159C3BDFB1593BB901EE7BDBB36B7BC25B8ADBC019A6D3D7A122C3C0172A73DBCC1E93D1D504BBD2C6CEB3B951FB43DAAFD5ABEE90613BD6CBB85BECC16893D419F1C3C34D4AB3D9C11033EF139B2BE066091BA3FABD3BD5293EF3D0949D33CDC4616BEB38505BEC7201C3EC936B23D0F416ABDC0B2373C0DD60F3D570704BE1BC536BED816D6BA44BC783A71214DBD8695E23C39D75FBD0A0AC6BB8151AD3DBE81F83DC514D4BC86150C3D97E3293E217222BE5B9A8D3DE6EC9BBDE5AB38BC22691EBE114848BC12EA4C3E513104BEEB938B3D5A27723C3A7FE8BD10E8C53DA4692BBE43972CBE106012BED963B5BDC499053DD616FA3D6485EE3C22A0B3BDFD8F423E496B04BEB8F19C3E6A9D583C6965ABBEFFEF773857C1B93DBCC60B3C8A75773E07FB943D5358683D5F76CE3D5E2F153D1099BD3D2D13AEBAC40B973CFE9D1BBE22DA843C7F36BB3DDC91A33CC158033E06E48F3D0002943D50235FBDB1200BBD8C1B123E569956BE945A8FBD8BC3D6BD13B609BDEE22323E100A27BE9C439D3DE88627BE38ABC13C9CDF2D3D5A4681BD495CCE3DC7EF9A3E9C6E293D547746BE0CACC93DC554383D64CCE7BC3A341DBEC4F71B3DE1F20CBE0647D2BC617CF23D2DC51FBE807E7B3E213B05BE3E0824BE317BD13DF083DD3C5311823D6ED1133D48BAADBEE4FF99BEB837BDBD684391BD73CB9EBD7AA6753E7B07F73DC9EFD3BC555D1A3E1A0CDC3D4F9FBDBD4BF2C93C6BD6813CA51AB5BDC2E96BBE74D23EBB6A7675BC66AA043D8BBB59BEA1F141BDE42ADBBDE9E911BDA257B6BD5FF6FFBD3AE1893CB10626BD5B5B95BD5B30253EAF92773D589DE83DC289BCBDABC594BD7CEF31BE6EF96D3DFA6FB7BDAC53123E1796E7BDDAA9B1BCC564213E102EC33D14CF983D1ECA02BE3293AFBD41B73C3E6CFEDB3C492EA1BD3F2120BC2382393E9ED726BDF154403DC6957C3CEFDD733B6C098DBE8F11E93CC6C6313D2FBFCE3D8C6BA53D6C898FBDE077FFBD0C92313E1A69E83C1FA028BD70058DBE4DD202BE4190203EC36B11BE7D8F823EF65A17BE27F4173E541FB53DF4E7653D74E4583E0D8A29BDCFD0693D26DC5F3DE4B6CFBD2AA8E73C5AF70D3E008BADBD702A91BD6C53A83DFDAA6D3D2568A8BCE8EFA7BDCB5B74BD508BA5BD43AE80BD5BC5823EBF8DCBBDC149CF3DC56E37BD0A18133E0BE023BDBD90F5BDCC09FABDAB2E86BECB66093DC0094CBE5D572FBD73CCE6BC7EEAEEBDFB273C3B0FB87D3E4149B3BC50E34BBE2AAB0F3E1EE2A53D846AA53C419421BECD2949BD51BF29BD77927E3E83761ABE53DB1DBE8DF34BBD839E743D5B37E7BC92B4003EE20F82BDE2854EBC5366FFBDF9FC7FBD0F07E73D4E99E73D700355BCFDD6A3BDBC5586BDB1329F3C2F007FB938ABB9BD6CD8763C16D108BD341C3C3D6329AB3E2FB735BD27C31F3ED24C743E0959CEBC2008ADBEDACC31BD903510BE8EB888BEC6E1293D0F844FBEFA0446BDC268473E74381B3DF40C813E0C10923D666502BD54530FBE61DBEDBDBA58D83CFA93F83CF6CF0CBEF17EA6BD3A80F2BD779A1E3D7417FBBDEE85C83CA1CF173EE9AF1A3C152EA7BDA92F97BD272C793EB492D7BC4A2335BD8EB304BD63B9EFBC857095BCDFBF2B3E53BB6EBD643B06BE23BF4139BB3BDD3DC2DB303D637EE9BD6BCA073E8C597D3D2A28A8BD57A03B3E43B5E6BD4F3D283D8A3A3DBE1380F33D0FAB813EA18FCC3D8A1BDA3C684C7E3EAD9667BC5E6C343E65F2843E1084EEBA9855923DA3B7B53E96370FBE5B0637BEA08DF23BA338FEBD1F5AAE3DB4CC0DBE6BB809BDFFE9ABBC2E9402BE9235753CF1671E3EE27C6E3E09A6EDBC8A05603D75AC153C728C37BEDCFAC73D445ECF3DC275E9BDD24D863D2FE246BE218EDEBD60F292BD9855C4BC68DC0D3D18A3B7BDF2321DBE2B679BBD59690E3DCACCCF3D6296823E64A432BC1D092B3CBB22723C89571B3E8F93343DAE2D8FBC0456D63C524FB83D1A9D873D2294EE3C41336FBD33E18B3D05A6E83D0E73AFBD2A31ECBDD8D8A2BDA8B4ED3DFBC4AE3DBFB982BEF7A87B3D3574B2BC6459BEBDBE5A9B3DFC7B9EBD0D76E6BA12C3F9BCF580003D25136E3D6073B43DAEE7C03CE5F06CBE42343EBD557B0DBE5283CABDD944823C0EB7173E3CF9C9BC927CD43DA252C63D76E7EF3D0DFBAA3D966818BE99A7B73D525DD9BC10A5973C565A32BEE628D1BD4E1497BEEF42953EF846583D89D0A2BD51692EBE8913053E3032B83DC61998BE9DFA4FBE726EA23DE79A083EFAF9ACBEA90881BD539A4B3EA2363F3E446E32BE664D2B3D08ED4238DE1B6FBD3CCFE6BDE9CD12BD7845EABCA0A19BBD356DF0BC0233433CF978333D9D6587BE467C36BD0B17313DFDFF92BC083B8C3D559337BDD01C593D6E8F15BE6E348D3DC7361EBCBB658B3CED21F83C8ADA65BDF1868D3E65FFD9BDC321E2BC30EEE1BB6CDA073EBC6D37BD22A89A3E5A9D573DE2DD7D3D007F30BC5B5C96BDF1E0343D0AF8463E40DF283E880AC33D83077A3DBDA4873D93453CBD1C10213D8386CD3D4EC8D23DF955F73D89F2BA3DE35281BDAAE0DBBD97E72C3B56A241BD92A6CEBDEB58B7BD22C3B1BDC0F3CE3DF688C13DDF5CC73E0BBBF4BD7E97DABDD03343BEAA8416BE84BB2C3E564560BCD4588D3DB8D7A83D69D1FFBD5C5C0ABE872ACCBD5CC7ADBD7BED0EBDA5693B3E3C70C63DB290E6BC282104BB3D5F333EEC273F3E0CE6293E84B4183E167D393D034B6CBD48D9E4BD538B183E23D7793C33D43A3E47F4843CADE2A6BB720427BE068EB03D45E0303DCCBDB93C3ED5263D68427C3E2670C13BCC571E3B4069EE3CB6271B3ED9073EBD154201BE1E0BAC3DF113AC3DEDC806BD79F03CBE430CFCBC7C9A283E3973483E3CCE4DBD0A9209BBF8B0A03D119D3A3E98B709BD84B74BBD24EE233C8951B8BC8A7A41BDE399453EB440ECBDF68AA9BD47AF463E8B9A08BE6C3741BD26A9E53D3047DEBDB62626BEE46C553E5C3409BE169668BDD63602BEB6FE79BD5F3AED3D593BDE3D498CEE3D8A89B23D83EB7D3D0484C73EBE88053956B8A1BC27C3F23DBE214FBC430D78BD159704BEDB6B813D862A4CBEECF798BD77955B3C322889BC032BE23CE0C1873CF1DB053EF8AF3A3E9D1DDEBD0ECFBEBCEC98B73E87EDB7BBB002A0BD9DE5813E4CC7AE3E73F688BE5ABF24BE64ECBEBDBB79243D2993EDBCE77E37BD002986BD02CEBA3B3CB19A3D5DC3933D0338F43C5934A33CD58D2EBE1B34963D35FB47BDE8A483BEF7B8073D3CCD9F3CE99F15BEFEF5253E0BC5693D83C7F9BD1DFDB9BB274CC73C0C01843CD9A5D33C130BBC3C6F2396BD59AC2E3EF0823F3C0189AE3D5A183ABE6CD02EBE1CA7583E37F3CEBD95E9083EE2ED47BD3BE2803EE62CAFBDC1B7093E6DF9E93C413DDCBD0ACB843D91D0E3BDC67813BDFDD8653D1F7B18BE386181BDC6A22B3E4340FABD9D79AABDB45EAF3D3B0BB93B5D7FEABD34F8C63DCA8ABBBC716F41BE06C5F83DBA586ABE86B058BDDE5